#include "magic_wand_model_data.h"

// We need to keep the data array aligned on some architectures.
#ifdef __has_attribute
#define HAVE_ATTRIBUTE(x) __has_attribute(x)
#else
#define HAVE_ATTRIBUTE(x) 0
#endif
#if HAVE_ATTRIBUTE(aligned) || (defined(__GNUC__) && !defined(__clang__))
#define DATA_ALIGN_ATTRIBUTE __attribute__((aligned(4)))
#else
#define DATA_ALIGN_ATTRIBUTE
#endif

const unsigned char g_magic_wand_model_data[] DATA_ALIGN_ATTRIBUTE = {
  // Paste the data of the char array in `src/model.cc` here
  0x1c, 0x00, 0x00, 0x00, 0x54, 0x46, 0x4c, 0x33, 0x14, 0x00, 0x20, 0x00,
  0x04, 0x00, 0x08, 0x00, 0x0c, 0x00, 0x10, 0x00, 0x14, 0x00, 0x00, 0x00,
  0x18, 0x00, 0x1c, 0x00, 0x14, 0x00, 0x00, 0x00, 0x03, 0x00, 0x00, 0x00,
  0x18, 0x00, 0x00, 0x00, 0x2c, 0x00, 0x00, 0x00, 0xd8, 0x00, 0x00, 0x00,
  0x2c, 0x00, 0x00, 0x00, 0x80, 0x00, 0x00, 0x00, 0x78, 0x00, 0x00, 0x00,
  0x05, 0x00, 0x00, 0x00, 0x28, 0x07, 0x00, 0x00, 0x44, 0x06, 0x00, 0x00,
  0xbc, 0x03, 0x00, 0x00, 0xf8, 0x02, 0x00, 0x00, 0xac, 0x01, 0x00, 0x00,
  0x01, 0x00, 0x00, 0x00, 0xd0, 0x00, 0x00, 0x00, 0x14, 0x00, 0x00, 0x00,
  0x98, 0x32, 0x00, 0x00, 0x94, 0x32, 0x00, 0x00, 0x8c, 0x31, 0x00, 0x00,
  0xd8, 0x30, 0x00, 0x00, 0x30, 0x30, 0x00, 0x00, 0xbc, 0x2f, 0x00, 0x00,
  0x50, 0x2f, 0x00, 0x00, 0x00, 0x13, 0x00, 0x00, 0xec, 0x11, 0x00, 0x00,
  0x10, 0x10, 0x00, 0x00, 0xb4, 0x07, 0x00, 0x00, 0x6c, 0x32, 0x00, 0x00,
  0x68, 0x32, 0x00, 0x00, 0x64, 0x32, 0x00, 0x00, 0x60, 0x32, 0x00, 0x00,
  0x5c, 0x32, 0x00, 0x00, 0x58, 0x32, 0x00, 0x00, 0x54, 0x32, 0x00, 0x00,
  0x50, 0x32, 0x00, 0x00, 0x3c, 0x00, 0x00, 0x00, 0x00, 0x00, 0x00, 0x00,
  0x01, 0x00, 0x00, 0x00, 0x0c, 0x00, 0x00, 0x00, 0x08, 0x00, 0x0c, 0x00,
  0x04, 0x00, 0x08, 0x00, 0x08, 0x00, 0x00, 0x00, 0x08, 0x00, 0x00, 0x00,
  0x13, 0x00, 0x00, 0x00, 0x13, 0x00, 0x00, 0x00, 0x6d, 0x69, 0x6e, 0x5f,
  0x72, 0x75, 0x6e, 0x74, 0x69, 0x6d, 0x65, 0x5f, 0x76, 0x65, 0x72, 0x73,
  0x69, 0x6f, 0x6e, 0x00, 0xfa, 0xce, 0xff, 0xff, 0x04, 0x00, 0x00, 0x00,
  0x10, 0x00, 0x00, 0x00, 0x31, 0x2e, 0x35, 0x2e, 0x30, 0x00, 0x00, 0x00,
  0x00, 0x00, 0x00, 0x00, 0x00, 0x00, 0x00, 0x00, 0x0f, 0x00, 0x00, 0x00,
  0x4d, 0x4c, 0x49, 0x52, 0x20, 0x43, 0x6f, 0x6e, 0x76, 0x65, 0x72, 0x74,
  0x65, 0x64, 0x2e, 0x00, 0x00, 0x00, 0x0e, 0x00, 0x18, 0x00, 0x04, 0x00,
  0x08, 0x00, 0x0c, 0x00, 0x10, 0x00, 0x14, 0x00, 0x0e, 0x00, 0x00, 0x00,
  0x14, 0x00, 0x00, 0x00, 0x5c, 0x00, 0x00, 0x00, 0x60, 0x00, 0x00, 0x00,
  0x64, 0x00, 0x00, 0x00, 0x84, 0x00, 0x00, 0x00, 0x12, 0x00, 0x00, 0x00,
  0x58, 0x31, 0x00, 0x00, 0xe8, 0x30, 0x00, 0x00, 0x44, 0x30, 0x00, 0x00,
  0x9c, 0x2f, 0x00, 0x00, 0xf4, 0x2e, 0x00, 0x00, 0x94, 0x2e, 0x00, 0x00,
  0x2c, 0x2e, 0x00, 0x00, 0xd8, 0x11, 0x00, 0x00, 0xbc, 0x10, 0x00, 0x00,
  0xe0, 0x0e, 0x00, 0x00, 0x0c, 0x06, 0x00, 0x00, 0x28, 0x05, 0x00, 0x00,
  0xe8, 0x03, 0x00, 0x00, 0x3c, 0x03, 0x00, 0x00, 0x98, 0x02, 0x00, 0x00,
  0xd4, 0x01, 0x00, 0x00, 0x10, 0x01, 0x00, 0x00, 0x84, 0x00, 0x00, 0x00,
  0x01, 0x00, 0x00, 0x00, 0x00, 0x00, 0x00, 0x00, 0x01, 0x00, 0x00, 0x00,
  0x11, 0x00, 0x00, 0x00, 0x08, 0x00, 0x00, 0x00, 0x74, 0x05, 0x00, 0x00,
  0x94, 0x04, 0x00, 0x00, 0x78, 0x03, 0x00, 0x00, 0xbc, 0x02, 0x00, 0x00,
  0x30, 0x02, 0x00, 0x00, 0x50, 0x01, 0x00, 0x00, 0xa8, 0x00, 0x00, 0x00,
  0x10, 0x00, 0x00, 0x00, 0x04, 0x00, 0x00, 0x00, 0x6d, 0x61, 0x69, 0x6e,
  0x00, 0x00, 0x00, 0x00, 0x7a, 0xff, 0xff, 0xff, 0x00, 0x00, 0x00, 0x09,
  0x04, 0x00, 0x00, 0x00, 0x1c, 0x00, 0x00, 0x00, 0x10, 0x00, 0x00, 0x00,
  0x04, 0x00, 0x00, 0x00, 0xf6, 0xcf, 0xff, 0xff, 0x00, 0x00, 0x80, 0x3f,
  0x01, 0x00, 0x00, 0x00, 0x11, 0x00, 0x00, 0x00, 0x01, 0x00, 0x00, 0x00,
  0x10, 0x00, 0x00, 0x00, 0xa0, 0xfa, 0xff, 0xff, 0x19, 0x00, 0x00, 0x00,
  0x00, 0x00, 0x00, 0x19, 0x01, 0x00, 0x00, 0x00, 0x84, 0xcf, 0xff, 0xff,
  0x14, 0x00, 0x00, 0x00, 0x12, 0x00, 0x00, 0x00, 0x18, 0x00, 0x00, 0x00,
  0x30, 0x00, 0x00, 0x00, 0x20, 0x00, 0x00, 0x00, 0x02, 0x00, 0x00, 0x00,
  0x01, 0x00, 0x00, 0x00, 0x03, 0x00, 0x00, 0x00, 0x08, 0x00, 0x00, 0x00,
  0x49, 0x64, 0x65, 0x6e, 0x74, 0x69, 0x74, 0x79, 0x00, 0x00, 0x00, 0x00,
  0x02, 0x00, 0x00, 0x00, 0xff, 0xff, 0xff, 0xff, 0x03, 0x00, 0x00, 0x00,
  0x68, 0xd0, 0xff, 0xff, 0x00, 0x00, 0x0e, 0x00, 0x18, 0x00, 0x08, 0x00,
  0x0c, 0x00, 0x10, 0x00, 0x07, 0x00, 0x14, 0x00, 0x0e, 0x00, 0x00, 0x00,
  0x00, 0x00, 0x00, 0x08, 0x03, 0x00, 0x00, 0x00, 0x18, 0x00, 0x00, 0x00,
  0x0c, 0x00, 0x00, 0x00, 0x04, 0x00, 0x00, 0x00, 0x84, 0xcf, 0xff, 0xff,
  0x01, 0x00, 0x00, 0x00, 0x10, 0x00, 0x00, 0x00, 0x03, 0x00, 0x00, 0x00,
  0x0f, 0x00, 0x00, 0x00, 0x07, 0x00, 0x00, 0x00, 0x04, 0x00, 0x00, 0x00,
  0x0c, 0xd0, 0xff, 0xff, 0x14, 0x00, 0x00, 0x00, 0x11, 0x00, 0x00, 0x00,
  0x18, 0x00, 0x00, 0x00, 0x5c, 0x00, 0x00, 0x00, 0x4c, 0x00, 0x00, 0x00,
  0x02, 0x00, 0x00, 0x00, 0x01, 0x00, 0x00, 0x00, 0x03, 0x00, 0x00, 0x00,
  0x34, 0x00, 0x00, 0x00, 0x73, 0x65, 0x71, 0x75, 0x65, 0x6e, 0x74, 0x69,
  0x61, 0x6c, 0x2f, 0x64, 0x65, 0x6e, 0x73, 0x65, 0x5f, 0x31, 0x2f, 0x4d,
  0x61, 0x74, 0x4d, 0x75, 0x6c, 0x3b, 0x73, 0x65, 0x71, 0x75, 0x65, 0x6e,
  0x74, 0x69, 0x61, 0x6c, 0x2f, 0x64, 0x65, 0x6e, 0x73, 0x65, 0x5f, 0x31,
  0x2f, 0x42, 0x69, 0x61, 0x73, 0x41, 0x64, 0x64, 0x00, 0x00, 0x00, 0x00,
  0x02, 0x00, 0x00, 0x00, 0xff, 0xff, 0xff, 0xff, 0x03, 0x00, 0x00, 0x00,
  0x0c, 0xd0, 0xff, 0xff, 0xda, 0xfc, 0xff, 0xff, 0x00, 0x00, 0x00, 0x08,
  0x03, 0x00, 0x00, 0x00, 0x24, 0x00, 0x00, 0x00, 0x18, 0x00, 0x00, 0x00,
  0x0c, 0x00, 0x00, 0x00, 0x00, 0x00, 0x06, 0x00, 0x08, 0x00, 0x07, 0x00,
  0x06, 0x00, 0x00, 0x00, 0x00, 0x00, 0x00, 0x01, 0x01, 0x00, 0x00, 0x00,
  0x0f, 0x00, 0x00, 0x00, 0x03, 0x00, 0x00, 0x00, 0x0e, 0x00, 0x00, 0x00,
  0x06, 0x00, 0x00, 0x00, 0x03, 0x00, 0x00, 0x00, 0xe8, 0xfb, 0xff, 0xff,
  0x09, 0x00, 0x00, 0x00, 0x00, 0x00, 0x00, 0x09, 0x01, 0x00, 0x00, 0x00,
  0xcc, 0xd0, 0xff, 0xff, 0x14, 0x00, 0x00, 0x00, 0x10, 0x00, 0x00, 0x00,
  0x18, 0x00, 0x00, 0x00, 0x6c, 0x00, 0x00, 0x00, 0x5c, 0x00, 0x00, 0x00,
  0x02, 0x00, 0x00, 0x00, 0x01, 0x00, 0x00, 0x00, 0x10, 0x00, 0x00, 0x00,
  0x46, 0x00, 0x00, 0x00, 0x73, 0x65, 0x71, 0x75, 0x65, 0x6e, 0x74, 0x69,
  0x61, 0x6c, 0x2f, 0x64, 0x65, 0x6e, 0x73, 0x65, 0x2f, 0x4d, 0x61, 0x74,
  0x4d, 0x75, 0x6c, 0x3b, 0x73, 0x65, 0x71, 0x75, 0x65, 0x6e, 0x74, 0x69,
  0x61, 0x6c, 0x2f, 0x64, 0x65, 0x6e, 0x73, 0x65, 0x2f, 0x52, 0x65, 0x6c,
  0x75, 0x3b, 0x73, 0x65, 0x71, 0x75, 0x65, 0x6e, 0x74, 0x69, 0x61, 0x6c,
  0x2f, 0x64, 0x65, 0x6e, 0x73, 0x65, 0x2f, 0x42, 0x69, 0x61, 0x73, 0x41,
  0x64, 0x64, 0x00, 0x00, 0x02, 0x00, 0x00, 0x00, 0xff, 0xff, 0xff, 0xff,
  0x10, 0x00, 0x00, 0x00, 0xec, 0xd1, 0xff, 0xff, 0x00, 0x00, 0x0a, 0x00,
  0x10, 0x00, 0x04, 0x00, 0x08, 0x00, 0x0c, 0x00, 0x0a, 0x00, 0x00, 0x00,
  0x02, 0x00, 0x00, 0x00, 0x10, 0x00, 0x00, 0x00, 0x04, 0x00, 0x00, 0x00,
  0x01, 0x00, 0x00, 0x00, 0x0e, 0x00, 0x00, 0x00, 0x02, 0x00, 0x00, 0x00,
  0x0d, 0x00, 0x00, 0x00, 0x05, 0x00, 0x00, 0x00, 0xa8, 0xfc, 0xff, 0xff,
  0x16, 0x00, 0x00, 0x00, 0x00, 0x00, 0x00, 0x16, 0x01, 0x00, 0x00, 0x00,
  0x8c, 0xd1, 0xff, 0xff, 0x14, 0x00, 0x00, 0x00, 0x0f, 0x00, 0x00, 0x00,
  0x18, 0x00, 0x00, 0x00, 0x40, 0x00, 0x00, 0x00, 0x30, 0x00, 0x00, 0x00,
  0x02, 0x00, 0x00, 0x00, 0x01, 0x00, 0x00, 0x00, 0x70, 0x00, 0x00, 0x00,
  0x1a, 0x00, 0x00, 0x00, 0x73, 0x65, 0x71, 0x75, 0x65, 0x6e, 0x74, 0x69,
  0x61, 0x6c, 0x2f, 0x66, 0x6c, 0x61, 0x74, 0x74, 0x65, 0x6e, 0x2f, 0x52,
  0x65, 0x73, 0x68, 0x61, 0x70, 0x65, 0x00, 0x00, 0x02, 0x00, 0x00, 0x00,
  0xff, 0xff, 0xff, 0xff, 0x70, 0x00, 0x00, 0x00, 0x70, 0xd1, 0xff, 0xff,
  0x3e, 0xfe, 0xff, 0xff, 0x00, 0x00, 0x00, 0x05, 0x01, 0x00, 0x00, 0x00,
  0x38, 0x00, 0x00, 0x00, 0x2c, 0x00, 0x00, 0x00, 0x14, 0x00, 0x00, 0x00,
  0x00, 0x00, 0x0e, 0x00, 0x14, 0x00, 0x00, 0x00, 0x10, 0x00, 0x0c, 0x00,
  0x08, 0x00, 0x04, 0x00, 0x0e, 0x00, 0x00, 0x00, 0x03, 0x00, 0x00, 0x00,
  0x01, 0x00, 0x00, 0x00, 0x03, 0x00, 0x00, 0x00, 0x01, 0x00, 0x00, 0x00,
  0x01, 0x00, 0x00, 0x00, 0x0d, 0x00, 0x00, 0x00, 0x01, 0x00, 0x00, 0x00,
  0x0c, 0x00, 0x00, 0x00, 0x2c, 0xd2, 0xff, 0xff, 0x14, 0x00, 0x00, 0x00,
  0x0e, 0x00, 0x00, 0x00, 0x20, 0x00, 0x00, 0x00, 0x58, 0x00, 0x00, 0x00,
  0x40, 0x00, 0x00, 0x00, 0x04, 0x00, 0x00, 0x00, 0x01, 0x00, 0x00, 0x00,
  0x07, 0x00, 0x00, 0x00, 0x01, 0x00, 0x00, 0x00, 0x10, 0x00, 0x00, 0x00,
  0x22, 0x00, 0x00, 0x00, 0x73, 0x65, 0x71, 0x75, 0x65, 0x6e, 0x74, 0x69,
  0x61, 0x6c, 0x2f, 0x6d, 0x61, 0x78, 0x5f, 0x70, 0x6f, 0x6f, 0x6c, 0x69,
  0x6e, 0x67, 0x32, 0x64, 0x5f, 0x31, 0x2f, 0x4d, 0x61, 0x78, 0x50, 0x6f,
  0x6f, 0x6c, 0x00, 0x00, 0x04, 0x00, 0x00, 0x00, 0xff, 0xff, 0xff, 0xff,
  0x07, 0x00, 0x00, 0x00, 0x01, 0x00, 0x00, 0x00, 0x10, 0x00, 0x00, 0x00,
  0x28, 0xd2, 0xff, 0xff, 0x1a, 0xfe, 0xff, 0xff, 0x00, 0x00, 0x00, 0x01,
  0x24, 0x00, 0x00, 0x00, 0x18, 0x00, 0x00, 0x00, 0x04, 0x00, 0x00, 0x00,
  0x0c, 0xfe, 0xff, 0xff, 0x01, 0x00, 0x00, 0x00, 0x01, 0x00, 0x00, 0x00,
  0x00, 0x00, 0x00, 0x01, 0x01, 0x00, 0x00, 0x00, 0x0c, 0x00, 0x00, 0x00,
  0x03, 0x00, 0x00, 0x00, 0x0b, 0x00, 0x00, 0x00, 0x09, 0x00, 0x00, 0x00,
  0x02, 0x00, 0x00, 0x00, 0xd4, 0xd2, 0xff, 0xff, 0x14, 0x00, 0x00, 0x00,
  0x0d, 0x00, 0x00, 0x00, 0x20, 0x00, 0x00, 0x00, 0xb8, 0x00, 0x00, 0x00,
  0xa0, 0x00, 0x00, 0x00, 0x04, 0x00, 0x00, 0x00, 0x01, 0x00, 0x00, 0x00,
  0x15, 0x00, 0x00, 0x00, 0x01, 0x00, 0x00, 0x00, 0x10, 0x00, 0x00, 0x00,
  0x83, 0x00, 0x00, 0x00, 0x73, 0x65, 0x71, 0x75, 0x65, 0x6e, 0x74, 0x69,
  0x61, 0x6c, 0x2f, 0x63, 0x6f, 0x6e, 0x76, 0x32, 0x64, 0x5f, 0x31, 0x2f,
  0x52, 0x65, 0x6c, 0x75, 0x3b, 0x73, 0x65, 0x71, 0x75, 0x65, 0x6e, 0x74,
  0x69, 0x61, 0x6c, 0x2f, 0x63, 0x6f, 0x6e, 0x76, 0x32, 0x64, 0x5f, 0x31,
  0x2f, 0x42, 0x69, 0x61, 0x73, 0x41, 0x64, 0x64, 0x3b, 0x73, 0x65, 0x71,
  0x75, 0x65, 0x6e, 0x74, 0x69, 0x61, 0x6c, 0x2f, 0x63, 0x6f, 0x6e, 0x76,
  0x32, 0x64, 0x5f, 0x31, 0x2f, 0x43, 0x6f, 0x6e, 0x76, 0x32, 0x44, 0x3b,
  0x73, 0x65, 0x71, 0x75, 0x65, 0x6e, 0x74, 0x69, 0x61, 0x6c, 0x2f, 0x63,
  0x6f, 0x6e, 0x76, 0x32, 0x64, 0x5f, 0x31, 0x2f, 0x42, 0x69, 0x61, 0x73,
  0x41, 0x64, 0x64, 0x2f, 0x52, 0x65, 0x61, 0x64, 0x56, 0x61, 0x72, 0x69,
  0x61, 0x62, 0x6c, 0x65, 0x4f, 0x70, 0x2f, 0x72, 0x65, 0x73, 0x6f, 0x75,
  0x72, 0x63, 0x65, 0x00, 0x04, 0x00, 0x00, 0x00, 0xff, 0xff, 0xff, 0xff,
  0x15, 0x00, 0x00, 0x00, 0x01, 0x00, 0x00, 0x00, 0x10, 0x00, 0x00, 0x00,
  0x40, 0xd4, 0xff, 0xff, 0x00, 0x00, 0x0e, 0x00, 0x1a, 0x00, 0x08, 0x00,
  0x0c, 0x00, 0x10, 0x00, 0x07, 0x00, 0x14, 0x00, 0x0e, 0x00, 0x00, 0x00,
  0x00, 0x00, 0x00, 0x05, 0x01, 0x00, 0x00, 0x00, 0x3c, 0x00, 0x00, 0x00,
  0x30, 0x00, 0x00, 0x00, 0x14, 0x00, 0x00, 0x00, 0x00, 0x00, 0x0e, 0x00,
  0x18, 0x00, 0x17, 0x00, 0x10, 0x00, 0x0c, 0x00, 0x08, 0x00, 0x04, 0x00,
  0x0e, 0x00, 0x00, 0x00, 0x03, 0x00, 0x00, 0x00, 0x03, 0x00, 0x00, 0x00,
  0x03, 0x00, 0x00, 0x00, 0x03, 0x00, 0x00, 0x00, 0x00, 0x00, 0x00, 0x01,
  0x01, 0x00, 0x00, 0x00, 0x0b, 0x00, 0x00, 0x00, 0x01, 0x00, 0x00, 0x00,
  0x0a, 0x00, 0x00, 0x00, 0x2c, 0xff, 0xff, 0xff, 0x11, 0x00, 0x00, 0x00,
  0x00, 0x00, 0x00, 0x11, 0x01, 0x00, 0x00, 0x00, 0x10, 0xd4, 0xff, 0xff,
  0x14, 0x00, 0x00, 0x00, 0x0c, 0x00, 0x00, 0x00, 0x20, 0x00, 0x00, 0x00,
  0x58, 0x00, 0x00, 0x00, 0x40, 0x00, 0x00, 0x00, 0x04, 0x00, 0x00, 0x00,
  0x01, 0x00, 0x00, 0x00, 0x15, 0x00, 0x00, 0x00, 0x01, 0x00, 0x00, 0x00,
  0x08, 0x00, 0x00, 0x00, 0x20, 0x00, 0x00, 0x00, 0x73, 0x65, 0x71, 0x75,
  0x65, 0x6e, 0x74, 0x69, 0x61, 0x6c, 0x2f, 0x6d, 0x61, 0x78, 0x5f, 0x70,
  0x6f, 0x6f, 0x6c, 0x69, 0x6e, 0x67, 0x32, 0x64, 0x2f, 0x4d, 0x61, 0x78,
  0x50, 0x6f, 0x6f, 0x6c, 0x00, 0x00, 0x00, 0x00, 0x04, 0x00, 0x00, 0x00,
  0xff, 0xff, 0xff, 0xff, 0x15, 0x00, 0x00, 0x00, 0x01, 0x00, 0x00, 0x00,
  0x08, 0x00, 0x00, 0x00, 0x1c, 0xd5, 0xff, 0xff, 0x00, 0x00, 0x0e, 0x00,
  0x14, 0x00, 0x00, 0x00, 0x08, 0x00, 0x0c, 0x00, 0x07, 0x00, 0x10, 0x00,
  0x0e, 0x00, 0x00, 0x00, 0x00, 0x00, 0x00, 0x01, 0x30, 0x00, 0x00, 0x00,
  0x24, 0x00, 0x00, 0x00, 0x10, 0x00, 0x00, 0x00, 0x0c, 0x00, 0x10, 0x00,
  0x00, 0x00, 0x04, 0x00, 0x08, 0x00, 0x0f, 0x00, 0x0c, 0x00, 0x00, 0x00,
  0x01, 0x00, 0x00, 0x00, 0x01, 0x00, 0x00, 0x00, 0x00, 0x00, 0x00, 0x01,
  0x01, 0x00, 0x00, 0x00, 0x0a, 0x00, 0x00, 0x00, 0x03, 0x00, 0x00, 0x00,
  0x00, 0x00, 0x00, 0x00, 0x08, 0x00, 0x00, 0x00, 0x01, 0x00, 0x00, 0x00,
  0x0c, 0x00, 0x10, 0x00, 0x0b, 0x00, 0x00, 0x00, 0x0c, 0x00, 0x04, 0x00,
  0x0c, 0x00, 0x00, 0x00, 0x03, 0x00, 0x00, 0x00, 0x00, 0x00, 0x00, 0x03,
  0x01, 0x00, 0x00, 0x00, 0xf0, 0xd4, 0xff, 0xff, 0x14, 0x00, 0x00, 0x00,
  0x0b, 0x00, 0x00, 0x00, 0x20, 0x00, 0x00, 0x00, 0xb0, 0x00, 0x00, 0x00,
  0x98, 0x00, 0x00, 0x00, 0x04, 0x00, 0x00, 0x00, 0x01, 0x00, 0x00, 0x00,
  0x40, 0x00, 0x00, 0x00, 0x03, 0x00, 0x00, 0x00, 0x08, 0x00, 0x00, 0x00,
  0x7b, 0x00, 0x00, 0x00, 0x73, 0x65, 0x71, 0x75, 0x65, 0x6e, 0x74, 0x69,
  0x61, 0x6c, 0x2f, 0x63, 0x6f, 0x6e, 0x76, 0x32, 0x64, 0x2f, 0x52, 0x65,
  0x6c, 0x75, 0x3b, 0x73, 0x65, 0x71, 0x75, 0x65, 0x6e, 0x74, 0x69, 0x61,
  0x6c, 0x2f, 0x63, 0x6f, 0x6e, 0x76, 0x32, 0x64, 0x2f, 0x42, 0x69, 0x61,
  0x73, 0x41, 0x64, 0x64, 0x3b, 0x73, 0x65, 0x71, 0x75, 0x65, 0x6e, 0x74,
  0x69, 0x61, 0x6c, 0x2f, 0x63, 0x6f, 0x6e, 0x76, 0x32, 0x64, 0x2f, 0x43,
  0x6f, 0x6e, 0x76, 0x32, 0x44, 0x3b, 0x73, 0x65, 0x71, 0x75, 0x65, 0x6e,
  0x74, 0x69, 0x61, 0x6c, 0x2f, 0x63, 0x6f, 0x6e, 0x76, 0x32, 0x64, 0x2f,
  0x42, 0x69, 0x61, 0x73, 0x41, 0x64, 0x64, 0x2f, 0x52, 0x65, 0x61, 0x64,
  0x56, 0x61, 0x72, 0x69, 0x61, 0x62, 0x6c, 0x65, 0x4f, 0x70, 0x2f, 0x72,
  0x65, 0x73, 0x6f, 0x75, 0x72, 0x63, 0x65, 0x00, 0x04, 0x00, 0x00, 0x00,
  0xff, 0xff, 0xff, 0xff, 0x40, 0x00, 0x00, 0x00, 0x03, 0x00, 0x00, 0x00,
  0x08, 0x00, 0x00, 0x00, 0x44, 0xd5, 0xff, 0xff, 0x4e, 0xd6, 0xff, 0xff,
  0x04, 0x00, 0x00, 0x00, 0x00, 0x08, 0x00, 0x00, 0xd4, 0xec, 0xb5, 0xbe,
  0xa6, 0x93, 0x60, 0xbf, 0xac, 0x31, 0xd0, 0xbe, 0x17, 0xa9, 0xa8, 0xbd,
  0x6a, 0x4b, 0x5d, 0xbe, 0x8a, 0x08, 0x65, 0x3e, 0xcc, 0xb1, 0x98, 0xbd,
  0x75, 0xdc, 0x09, 0xbf, 0x7d, 0x62, 0x16, 0x3f, 0x75, 0xb8, 0x89, 0xbe,
  0x7d, 0x46, 0x85, 0xbe, 0x9e, 0x7f, 0x0d, 0xbe, 0x2f, 0x7c, 0x60, 0x3e,
  0xdb, 0x9e, 0x78, 0xbd, 0x87, 0xc6, 0x9e, 0x3d, 0x6c, 0x21, 0x29, 0xbe,
  0x06, 0x53, 0x0f, 0xbc, 0x30, 0x84, 0x17, 0x3e, 0xda, 0x37, 0x96, 0xbe,
  0x67, 0x20, 0x85, 0xbd, 0x40, 0x4b, 0x99, 0xbd, 0xe3, 0x32, 0x37, 0xbe,
  0x30, 0xa0, 0x33, 0x3e, 0x56, 0x54, 0x16, 0xbe, 0xe2, 0x4a, 0x86, 0xbd,
  0xcb, 0x2a, 0xc1, 0x3d, 0x92, 0x68, 0xfd, 0xbd, 0x49, 0x54, 0x84, 0xbc,
  0x5b, 0x60, 0x0e, 0xbe, 0x31, 0x6c, 0xfd, 0xbd, 0x97, 0x8e, 0x5d, 0x3d,
  0xf2, 0xd6, 0x13, 0x3d, 0x4a, 0xd8, 0x15, 0xbe, 0xa9, 0xcb, 0xa9, 0xbd,
  0x14, 0x0d, 0x89, 0xbe, 0x10, 0x56, 0xe1, 0xbd, 0xe0, 0xa3, 0x1f, 0xbf,
  0x7e, 0x6e, 0x1c, 0xbe, 0x88, 0xd0, 0x9d, 0xbe, 0xa7, 0xce, 0x07, 0xbe,
  0xd8, 0x4a, 0x1b, 0xbe, 0x70, 0x3a, 0x1b, 0xbe, 0xa2, 0xac, 0x14, 0xbe,
  0x2d, 0xef, 0xc3, 0xbd, 0x54, 0x99, 0x46, 0xbf, 0x5d, 0x68, 0x10, 0xbd,
  0xeb, 0x70, 0x9b, 0xbe, 0x55, 0x00, 0xd7, 0xbd, 0x77, 0xbe, 0xe8, 0xbc,
  0x11, 0x77, 0x48, 0xbd, 0x8f, 0x32, 0xc8, 0x3d, 0x9b, 0x5e, 0x23, 0xbd,
  0x0a, 0xcc, 0x9d, 0xbe, 0x03, 0x41, 0xf8, 0x3e, 0x80, 0x30, 0xba, 0xbd,
  0xac, 0x43, 0x93, 0x3c, 0xa0, 0x16, 0x7d, 0x3d, 0xa8, 0xbb, 0x81, 0xbd,
  0xed, 0x96, 0xb5, 0x3e, 0x91, 0x20, 0x52, 0x3e, 0xc1, 0x5b, 0x8d, 0x3e,
  0x83, 0xb2, 0x17, 0x3e, 0xb5, 0xb1, 0x03, 0x3f, 0x39, 0x4f, 0x95, 0x3e,
  0x18, 0x27, 0x4c, 0xbe, 0x05, 0x85, 0x5c, 0x3d, 0x89, 0xee, 0x6c, 0x3e,
  0xf5, 0xcd, 0x0a, 0xbd, 0xe4, 0xdd, 0xe2, 0xbd, 0xe7, 0xbe, 0x26, 0xbd,
  0xf9, 0xfb, 0xfd, 0x3e, 0x01, 0x67, 0xaf, 0x3c, 0x42, 0xfc, 0xe1, 0xbd,
  0x71, 0xb7, 0x9d, 0x3d, 0x64, 0x1d, 0x4b, 0xbe, 0x19, 0xbb, 0x65, 0x3b,
  0xf8, 0x4c, 0x9f, 0xbd, 0x38, 0xfa, 0x3e, 0xbd, 0x8f, 0x66, 0x15, 0x39,
  0xfe, 0xf3, 0x78, 0x3e, 0x4f, 0x7f, 0x2c, 0xbe, 0x72, 0x25, 0x0c, 0xbb,
  0x19, 0x6d, 0x9f, 0xbc, 0x37, 0xe9, 0x17, 0x3e, 0xa7, 0xa1, 0x92, 0xbe,
  0xe2, 0x1f, 0x64, 0xbe, 0xae, 0x22, 0x52, 0x3e, 0x3a, 0x61, 0x0f, 0xbd,
  0x84, 0x7c, 0x8c, 0xbd, 0x04, 0xd7, 0x21, 0xbe, 0x50, 0x0e, 0x0f, 0x3e,
  0x5b, 0x2f, 0xe3, 0x3c, 0x54, 0xbb, 0x27, 0xbe, 0xad, 0x1f, 0x4a, 0xbe,
  0x87, 0x0e, 0x83, 0xbd, 0xee, 0x9c, 0x55, 0xbe, 0xde, 0xe8, 0x37, 0x3e,
  0xcd, 0x18, 0xca, 0xbe, 0xb4, 0xda, 0x1d, 0xbd, 0xc2, 0xa8, 0x00, 0x3d,
  0x19, 0x48, 0xa9, 0x3e, 0x0a, 0xb7, 0x00, 0x3e, 0x6a, 0xce, 0xed, 0x3e,
  0x27, 0x88, 0xa0, 0xbe, 0x79, 0x25, 0x16, 0xbd, 0x4f, 0x57, 0xbf, 0xbe,
  0x29, 0x8e, 0x80, 0xbd, 0x06, 0x6c, 0x9f, 0xbe, 0x5a, 0x8b, 0x66, 0x3c,
  0xee, 0xd6, 0x8b, 0x3d, 0xfb, 0x30, 0xf3, 0xbd, 0x96, 0xff, 0x60, 0xbe,
  0xf4, 0xbd, 0x1c, 0xbe, 0xa8, 0xd6, 0x56, 0x3d, 0x3e, 0xad, 0xb8, 0x3d,
  0x4b, 0x63, 0x2d, 0xbe, 0xcc, 0x72, 0x5e, 0xbe, 0x11, 0x66, 0x1b, 0x3e,
  0x49, 0x4e, 0xe4, 0xbd, 0xaf, 0xa7, 0xa7, 0xbd, 0xe8, 0x51, 0x44, 0xbe,
  0x26, 0xfc, 0x8c, 0x3e, 0x7c, 0xdf, 0xd2, 0x3d, 0x5d, 0x34, 0x94, 0xbd,
  0xc0, 0x70, 0x9a, 0xbe, 0x12, 0x0a, 0xfc, 0x3d, 0x3b, 0xf8, 0x17, 0xbe,
  0x91, 0xa4, 0xc6, 0x3e, 0x0d, 0x87, 0x1b, 0xbe, 0x92, 0xa4, 0x80, 0x3c,
  0x43, 0xfb, 0x50, 0xbe, 0xeb, 0x3b, 0xc0, 0xbc, 0x51, 0xf3, 0xd1, 0xbe,
  0x45, 0xd3, 0x99, 0x3d, 0x76, 0x09, 0x1c, 0xbd, 0x00, 0x2f, 0x22, 0x3e,
  0x8e, 0xf8, 0x9b, 0xbe, 0xdc, 0x7e, 0xbc, 0xbc, 0x06, 0x5a, 0xe7, 0x3d,
  0x51, 0xae, 0xc0, 0x3c, 0xd5, 0x0c, 0xb6, 0xbe, 0x41, 0xaa, 0x5a, 0xbe,
  0x54, 0x4e, 0x1e, 0xbe, 0xa8, 0x3f, 0x48, 0xbe, 0x32, 0x24, 0x11, 0xbe,
  0xed, 0xe4, 0x81, 0xbe, 0xbb, 0xf2, 0x05, 0xbd, 0xa3, 0x56, 0xcc, 0x3d,
  0xfa, 0xc1, 0xaa, 0x3c, 0x1d, 0x8b, 0xbe, 0x3e, 0x5d, 0xe8, 0x82, 0x3b,
  0x24, 0x99, 0x0e, 0xbe, 0x12, 0x0a, 0x82, 0x3e, 0xb6, 0xc1, 0x20, 0xbf,
  0x87, 0xad, 0x91, 0xbe, 0xed, 0x93, 0x16, 0xbd, 0xf6, 0x97, 0xc6, 0x3e,
  0x95, 0xd3, 0x8a, 0x3e, 0x13, 0x83, 0x32, 0x3e, 0xa1, 0x56, 0xb1, 0xbe,
  0xcb, 0x32, 0x79, 0x3e, 0x77, 0x26, 0xb2, 0x3c, 0xe6, 0x6e, 0x83, 0xbe,
  0x11, 0x0d, 0xd8, 0xbd, 0xbd, 0xfe, 0xcd, 0xbd, 0x8f, 0xfb, 0xa2, 0xbe,
  0xa3, 0x44, 0x9c, 0x3d, 0xac, 0x09, 0xba, 0xbd, 0x66, 0xb0, 0x02, 0x3e,
  0xc2, 0x39, 0x38, 0xbd, 0x59, 0x21, 0x7a, 0xbd, 0x3f, 0xfb, 0x5b, 0xbe,
  0x34, 0xbe, 0x7f, 0xbe, 0x54, 0x88, 0x2c, 0x3e, 0x8b, 0xc0, 0xc2, 0xbd,
  0xad, 0xaa, 0xf0, 0x3c, 0x21, 0x62, 0x59, 0xbe, 0xc6, 0xd6, 0x51, 0xbe,
  0x09, 0x0b, 0xa8, 0xbc, 0xd3, 0x9c, 0x56, 0xbd, 0x57, 0xce, 0x29, 0xbe,
  0x69, 0x73, 0x91, 0xbe, 0x28, 0x49, 0x84, 0xbe, 0x1f, 0x9e, 0x99, 0xbe,
  0xa2, 0xdf, 0x8e, 0xbe, 0x33, 0x17, 0x18, 0xbd, 0x9d, 0x41, 0x80, 0xbd,
  0xf4, 0xb6, 0x35, 0x3b, 0x08, 0xe2, 0xc0, 0xbb, 0x81, 0x56, 0x4d, 0x3d,
  0x11, 0x81, 0x11, 0xbd, 0xd0, 0xcc, 0x33, 0xbe, 0xe2, 0xf7, 0xf4, 0xbd,
  0x88, 0xb2, 0x90, 0xbd, 0x34, 0xca, 0x93, 0x3d, 0x59, 0x0c, 0xe4, 0xbe,
  0x31, 0x6a, 0x23, 0xbe, 0x18, 0x8c, 0xd0, 0x3c, 0xd8, 0xe0, 0x6b, 0xbe,
  0x53, 0xcd, 0x58, 0x3c, 0xe0, 0x6f, 0x3c, 0x3e, 0x94, 0x57, 0xf4, 0xbd,
  0xf8, 0x4e, 0x0d, 0xbe, 0xaa, 0xb6, 0xa4, 0xbe, 0xdc, 0xec, 0x13, 0x3f,
  0x50, 0x27, 0xb2, 0x3d, 0xc1, 0xc1, 0xe1, 0xbd, 0xb3, 0x95, 0x9e, 0xbd,
  0xdf, 0x02, 0x12, 0xbb, 0x7d, 0x67, 0x41, 0x3d, 0xae, 0x30, 0x46, 0x3d,
  0xc8, 0x9b, 0x47, 0xbe, 0x27, 0x5f, 0xa8, 0x3c, 0x94, 0xc8, 0xdd, 0x3d,
  0x14, 0x24, 0xb3, 0xbc, 0x68, 0xb7, 0x71, 0xbd, 0xa6, 0xc5, 0xa1, 0x3e,
  0x5c, 0x4c, 0x01, 0xbe, 0xc8, 0xa7, 0xb2, 0x3e, 0xd5, 0xc8, 0x30, 0xbe,
  0x09, 0x86, 0x25, 0x3e, 0x92, 0xf5, 0x49, 0x3e, 0x21, 0x0f, 0xc1, 0xbb,
  0x7b, 0x3e, 0xe8, 0x3d, 0xcd, 0xe0, 0x61, 0xbe, 0xff, 0x58, 0x81, 0xbc,
  0xa8, 0x6f, 0x0b, 0x3e, 0x44, 0x2b, 0x93, 0x3d, 0x5e, 0xe8, 0x9c, 0xbe,
  0xd6, 0x62, 0x58, 0x3f, 0x29, 0x7c, 0xb0, 0xbc, 0x79, 0x58, 0xc7, 0x3d,
  0x0a, 0x93, 0x02, 0xbe, 0x03, 0x3e, 0x78, 0xbe, 0xcc, 0x8c, 0x54, 0x3e,
  0x80, 0xdb, 0x35, 0xbd, 0xf0, 0x4d, 0x92, 0xbc, 0xb2, 0x42, 0x3d, 0x3e,
  0x4d, 0x35, 0x16, 0xbd, 0x57, 0x64, 0x80, 0xbd, 0xdc, 0xbe, 0x84, 0xbd,
  0x90, 0x8b, 0x57, 0xbe, 0x2a, 0xbb, 0x1c, 0x3e, 0x58, 0x7e, 0xa1, 0x3b,
  0x58, 0x62, 0xb2, 0xbd, 0x8e, 0x88, 0xb4, 0x3d, 0x8a, 0xb3, 0x77, 0x3e,
  0xd1, 0x0e, 0xe0, 0xbd, 0x40, 0x96, 0xe8, 0xbc, 0x7f, 0xba, 0x35, 0xbe,
  0x8c, 0xf0, 0xf2, 0x3d, 0x80, 0x54, 0x94, 0xbc, 0x85, 0x85, 0x8a, 0x3d,
  0xac, 0x22, 0xdb, 0x3d, 0x5f, 0x80, 0xf6, 0xbb, 0x06, 0x34, 0x6e, 0xbe,
  0x35, 0x01, 0x53, 0xbc, 0x80, 0x21, 0x9c, 0xbd, 0xf9, 0xb1, 0xc4, 0x3d,
  0x07, 0xb7, 0x6b, 0x3e, 0x5b, 0x1b, 0x16, 0xbe, 0x5b, 0x93, 0xcd, 0x3e,
  0xca, 0x85, 0x20, 0x3e, 0x5b, 0x64, 0x92, 0x3d, 0x10, 0xbe, 0xdc, 0xbd,
  0xf6, 0x38, 0x72, 0xbe, 0x6e, 0x7f, 0x89, 0xbd, 0xd8, 0x79, 0x5a, 0x3e,
  0x09, 0x06, 0x58, 0x3d, 0xe7, 0x94, 0xce, 0x3c, 0xd4, 0x6c, 0x1b, 0x3e,
  0x42, 0xde, 0xff, 0xbd, 0x84, 0xf8, 0x13, 0x3c, 0x30, 0x0f, 0xc1, 0xbe,
  0xb0, 0x7e, 0x70, 0x3e, 0x50, 0xe8, 0x79, 0xbe, 0x64, 0xa9, 0xd7, 0x3d,
  0x78, 0xae, 0x1c, 0x3e, 0x53, 0x6f, 0xb4, 0xbd, 0xe3, 0xa1, 0x78, 0xbe,
  0x90, 0xd4, 0x71, 0xbe, 0x3a, 0x3e, 0x61, 0xbe, 0xbf, 0x56, 0xcd, 0x3d,
  0x22, 0xf6, 0xe6, 0xbe, 0xe5, 0x55, 0xce, 0xbd, 0x64, 0xf3, 0xb2, 0x3e,
  0xf7, 0xd7, 0x1e, 0xbe, 0x18, 0xcc, 0x81, 0xbe, 0x1d, 0x78, 0xff, 0xbe,
  0x2f, 0x4e, 0x85, 0xbe, 0x48, 0x4e, 0xa5, 0xbe, 0x42, 0x9c, 0x90, 0xbe,
  0x44, 0x8e, 0xce, 0xbe, 0x4f, 0x2c, 0xb5, 0xbe, 0xae, 0x6f, 0x79, 0xbe,
  0x8c, 0x2a, 0x7b, 0xbe, 0x42, 0x68, 0xcc, 0xbc, 0x84, 0x63, 0xa6, 0x3c,
  0x91, 0xe9, 0x0d, 0x3e, 0xb0, 0x6a, 0x4b, 0x3c, 0x53, 0xa0, 0x00, 0x3f,
  0x1f, 0x18, 0x81, 0xbb, 0xb0, 0x81, 0x8d, 0x3e, 0x97, 0xf3, 0x65, 0xbe,
  0x6a, 0xc4, 0x3e, 0xbc, 0x28, 0x2f, 0x65, 0xbd, 0xcd, 0xa7, 0x83, 0xbe,
  0x82, 0x9c, 0x13, 0x3d, 0x8b, 0x77, 0x55, 0xbd, 0xe5, 0x08, 0x16, 0xbf,
  0x51, 0x6c, 0xad, 0xbc, 0xb0, 0x8f, 0xfb, 0xbd, 0xca, 0x5d, 0xc4, 0xbc,
  0x6f, 0x1c, 0x01, 0x3e, 0xcc, 0x8d, 0x17, 0x3e, 0xb7, 0xe8, 0x44, 0x3d,
  0x4a, 0x90, 0x7d, 0xbd, 0x21, 0x78, 0x8c, 0xbe, 0xa2, 0xae, 0x98, 0x3d,
  0x52, 0xbf, 0xc4, 0x3d, 0x76, 0x8a, 0x6a, 0x3e, 0x4f, 0x17, 0x59, 0xbe,
  0xf8, 0x5d, 0x8b, 0xbe, 0xc5, 0x21, 0x08, 0xbe, 0x52, 0x66, 0xd9, 0x3b,
  0x9f, 0x15, 0xa0, 0xbe, 0x29, 0x1e, 0x07, 0xbe, 0xe7, 0x0c, 0x91, 0xbe,
  0x00, 0x62, 0x51, 0xbe, 0x0c, 0x62, 0x01, 0x3e, 0xc5, 0xb6, 0xb0, 0xbb,
  0x22, 0xed, 0x45, 0xbb, 0xef, 0x22, 0x0a, 0x3d, 0xe7, 0x7c, 0x45, 0xbe,
  0x60, 0x53, 0xf5, 0x3e, 0x94, 0x09, 0xa4, 0x3c, 0xc6, 0x06, 0x17, 0xbd,
  0xe6, 0x4b, 0x89, 0xbc, 0x09, 0x87, 0x46, 0xbe, 0x27, 0x7e, 0x5c, 0x3d,
  0x2e, 0x8a, 0xa6, 0xbd, 0x6a, 0x14, 0x00, 0xbe, 0x82, 0xd4, 0xeb, 0x3c,
  0x91, 0x46, 0x5f, 0x3c, 0x1b, 0x9a, 0x69, 0xbd, 0x02, 0x2a, 0x3b, 0xbc,
  0xc7, 0x97, 0xb3, 0xbd, 0x91, 0x05, 0x47, 0x3e, 0xe2, 0xc0, 0x41, 0xbd,
  0xc5, 0x3d, 0x34, 0xbd, 0x82, 0xa1, 0x0a, 0xbd, 0x3f, 0xfe, 0xc2, 0x3d,
  0x07, 0xea, 0x48, 0x3d, 0x23, 0x91, 0x0c, 0x3e, 0xc5, 0xdb, 0x30, 0xbe,
  0x2a, 0x6e, 0x30, 0x3f, 0x3c, 0xad, 0xe4, 0xbc, 0xc8, 0x4c, 0x0b, 0x3e,
  0x02, 0x88, 0xa5, 0x3d, 0x97, 0xf8, 0x32, 0xbc, 0x5a, 0x9f, 0x0b, 0x3d,
  0xf7, 0xb7, 0x50, 0xbe, 0x39, 0xef, 0x38, 0xbd, 0x53, 0x20, 0x8b, 0xbd,
  0xd7, 0x33, 0x19, 0x3c, 0x9b, 0xc8, 0xe9, 0x3d, 0xaa, 0x10, 0xea, 0x3d,
  0x4c, 0x55, 0xef, 0xb9, 0xc7, 0xb8, 0xf0, 0xbd, 0xd6, 0x2b, 0x04, 0xbf,
  0x03, 0x89, 0x0b, 0x3e, 0x38, 0x71, 0x22, 0xbe, 0x84, 0xe4, 0xf4, 0xbd,
  0xd5, 0x1a, 0x7f, 0x3e, 0x16, 0x3a, 0xb6, 0xbd, 0x9f, 0x60, 0xa8, 0xbe,
  0x3a, 0x15, 0x14, 0xbe, 0xbb, 0x5b, 0x0f, 0xbf, 0x49, 0xa6, 0xc9, 0x3d,
  0xb4, 0x73, 0xdf, 0xbe, 0xcf, 0x6c, 0xdd, 0xbd, 0x33, 0xf0, 0x98, 0x3e,
  0xe4, 0x0f, 0x00, 0xbe, 0x96, 0x00, 0x18, 0xbf, 0xc0, 0x16, 0xbd, 0xbd,
  0x69, 0x75, 0x1a, 0xbd, 0x4f, 0x8f, 0x44, 0x3d, 0x81, 0xa3, 0x50, 0xbc,
  0x7e, 0xc5, 0x93, 0xbd, 0xa9, 0xe4, 0x66, 0xbf, 0x51, 0xfa, 0x45, 0x3c,
  0xce, 0x69, 0xd5, 0xbd, 0x72, 0xf7, 0xcd, 0x3d, 0x46, 0x35, 0x16, 0xbd,
  0xd6, 0xbe, 0xc7, 0x3d, 0x00, 0x8d, 0x84, 0x3c, 0xad, 0x5a, 0xe5, 0xbe,
  0x55, 0x31, 0xd4, 0x3e, 0x94, 0x72, 0x73, 0xbe, 0x4a, 0x55, 0xbe, 0xbb,
  0x6c, 0x04, 0xc0, 0xbd, 0xf4, 0x50, 0x5b, 0xbe, 0x11, 0x2b, 0xea, 0x3d,
  0xab, 0x51, 0xa9, 0xbd, 0x54, 0x83, 0x2e, 0xbe, 0xfd, 0x65, 0x40, 0x3e,
  0xe9, 0x00, 0xc3, 0x3c, 0x78, 0x76, 0x8c, 0xbe, 0x5f, 0xfd, 0x7d, 0xbc,
  0x5e, 0x16, 0x16, 0x3e, 0x22, 0x54, 0x16, 0xbe, 0x04, 0x7a, 0x5e, 0xbb,
  0x96, 0x5f, 0x59, 0xbe, 0x6a, 0x22, 0x09, 0xbf, 0x33, 0x52, 0x50, 0x3c,
  0x39, 0x5d, 0x1f, 0x3d, 0x31, 0x73, 0x07, 0xbf, 0x2d, 0x5e, 0xfd, 0xbd,
  0x50, 0x8a, 0x9e, 0xbd, 0x55, 0x61, 0xa0, 0x3d, 0x3b, 0x20, 0xaf, 0x3c,
  0x75, 0xd6, 0x06, 0xbf, 0x4d, 0x86, 0xe8, 0x3d, 0xf0, 0x85, 0x0b, 0xbe,
  0x1b, 0xac, 0xf6, 0xbe, 0xdd, 0x69, 0x45, 0x3c, 0x54, 0x91, 0x71, 0xbd,
  0x8f, 0xe1, 0x91, 0x3e, 0x1d, 0x6a, 0xe4, 0x3c, 0xb3, 0xca, 0x1a, 0x3d,
  0xd2, 0x29, 0x93, 0xbd, 0xf2, 0x99, 0xf0, 0x3b, 0x09, 0xea, 0xcc, 0xbe,
  0x9d, 0x0e, 0x05, 0xbd, 0xd9, 0x5d, 0x8f, 0xbb, 0x2b, 0xed, 0xaf, 0xbc,
  0x35, 0xfe, 0xcf, 0xbe, 0xaa, 0x0e, 0x9b, 0x3c, 0x1d, 0xb6, 0x86, 0x3e,
  0x06, 0xc1, 0x3a, 0x3e, 0x6e, 0xb2, 0x55, 0xbe, 0xd1, 0x69, 0x70, 0x3c,
  0x29, 0x7c, 0x47, 0xbe, 0x28, 0x15, 0xc4, 0x3d, 0xab, 0x73, 0x82, 0xbe,
  0x49, 0xbb, 0xbe, 0xbd, 0xcd, 0x87, 0x1d, 0x3e, 0x40, 0x5b, 0x3c, 0xbd,
  0x1a, 0x45, 0x1c, 0xbe, 0xdc, 0x16, 0xac, 0x3d, 0x37, 0xf9, 0x2b, 0x3d,
  0x09, 0xa5, 0x40, 0xbe, 0xfe, 0xfb, 0x90, 0x3e, 0x8c, 0x5e, 0x45, 0x3e,
  0x26, 0xf1, 0x66, 0xbe, 0xe7, 0x12, 0xf7, 0x3d, 0x4d, 0x3f, 0xd1, 0x3e,
  0x81, 0x24, 0xd9, 0x3d, 0xd9, 0xe5, 0xf5, 0x3d, 0x9b, 0x86, 0x00, 0xbe,
  0x92, 0x63, 0x8e, 0xbe, 0x2d, 0x50, 0x8b, 0x3e, 0xd9, 0x86, 0x82, 0xbe,
  0xf2, 0xeb, 0x92, 0x3e, 0x11, 0x2e, 0x0d, 0xbe, 0x2b, 0x17, 0xe5, 0x3d,
  0xbb, 0x49, 0xb9, 0x3e, 0x56, 0x8a, 0xf1, 0xbd, 0x6c, 0xf7, 0xe0, 0x3d,
  0x6f, 0x2d, 0x71, 0x3e, 0x84, 0x8a, 0x47, 0xbe, 0x1b, 0xab, 0x1b, 0xbc,
  0x63, 0x89, 0x96, 0xbe, 0x48, 0xa2, 0x73, 0x3d, 0x09, 0xb2, 0x81, 0x3b,
  0xff, 0xf8, 0x98, 0xbd, 0x43, 0x83, 0x90, 0x3e, 0xf0, 0xc4, 0x37, 0x3e,
  0xfa, 0x53, 0x26, 0xbe, 0x96, 0x1e, 0x72, 0xbd, 0xdd, 0x7c, 0x06, 0x3f,
  0xea, 0xc5, 0xe4, 0xbe, 0x54, 0xab, 0x9f, 0xbe, 0x6e, 0x18, 0x10, 0xbe,
  0x43, 0xfc, 0x06, 0x3e, 0x2e, 0x3a, 0xe5, 0xbd, 0x68, 0x8b, 0xc4, 0xbc,
  0xc5, 0x65, 0x8e, 0xbe, 0x6c, 0xe8, 0x2d, 0x3c, 0x0d, 0xb9, 0x96, 0xbe,
  0x60, 0xa1, 0xcc, 0xbe, 0x7a, 0x57, 0x8a, 0xbd, 0x6d, 0x5d, 0x40, 0xbd,
  0x16, 0x81, 0x31, 0xbe, 0x92, 0x2b, 0x14, 0x3e, 0x41, 0xde, 0x73, 0xbe,
  0x1d, 0x9d, 0xe5, 0xbc, 0x4f, 0xa6, 0xbe, 0x3d, 0xa6, 0x1e, 0xa2, 0xbb,
  0xf7, 0xc8, 0x80, 0x3d, 0xf1, 0x02, 0x8e, 0x3d, 0xc1, 0x00, 0xeb, 0xbd,
  0x81, 0xeb, 0xce, 0xbd, 0xa1, 0x7c, 0xd4, 0xbd, 0x58, 0xa5, 0xf6, 0xbd,
  0x5c, 0x90, 0xb6, 0x3d, 0x09, 0x5e, 0x18, 0xbe, 0xf0, 0xd2, 0xcb, 0x3d,
  0xb3, 0x07, 0xdc, 0xbc, 0x55, 0xbd, 0x4a, 0xbe, 0x23, 0x0f, 0xc7, 0x3d,
  0x45, 0xf5, 0x4e, 0x3d, 0x26, 0xde, 0xff, 0xff, 0x10, 0x00, 0x00, 0x00,
  0x0a, 0x00, 0x00, 0x00, 0x1c, 0x00, 0x00, 0x00, 0x38, 0x00, 0x00, 0x00,
  0x04, 0x00, 0x00, 0x00, 0x10, 0x00, 0x00, 0x00, 0x04, 0x00, 0x00, 0x00,
  0x01, 0x00, 0x00, 0x00, 0x08, 0x00, 0x00, 0x00, 0x1a, 0x00, 0x00, 0x00,
  0x73, 0x65, 0x71, 0x75, 0x65, 0x6e, 0x74, 0x69, 0x61, 0x6c, 0x2f, 0x63,
  0x6f, 0x6e, 0x76, 0x32, 0x64, 0x5f, 0x31, 0x2f, 0x43, 0x6f, 0x6e, 0x76,
  0x32, 0x44, 0x00, 0x00, 0x9c, 0xdd, 0xff, 0xff, 0xa6, 0xde, 0xff, 0xff,
  0x04, 0x00, 0x00, 0x00, 0x80, 0x01, 0x00, 0x00, 0x78, 0x06, 0xf6, 0x3d,
  0xba, 0x2e, 0xa4, 0x3e, 0xb2, 0x2d, 0x1e, 0xbe, 0xae, 0xe6, 0x4d, 0xbe,
  0x3a, 0x64, 0xd5, 0xbe, 0xee, 0x8f, 0xc5, 0xbd, 0x82, 0x51, 0x14, 0x3e,
  0x02, 0xc9, 0x89, 0xbd, 0x84, 0x46, 0xb3, 0xbd, 0x78, 0x17, 0xa2, 0x3e,
  0x48, 0x35, 0x92, 0xbe, 0x05, 0xf1, 0xee, 0x3d, 0x45, 0xe5, 0xde, 0x3d,
  0x83, 0xf6, 0xae, 0xbd, 0xe1, 0x17, 0x15, 0xbe, 0xda, 0xea, 0x71, 0xbe,
  0xd7, 0xb9, 0x59, 0x3e, 0x73, 0x1b, 0x43, 0x3e, 0x48, 0xa5, 0x57, 0x3e,
  0xf1, 0xd2, 0x18, 0xbe, 0xe4, 0x6c, 0x4e, 0xbc, 0xed, 0xfc, 0x26, 0x3e,
  0xd1, 0xd2, 0x19, 0x3d, 0x5e, 0x9e, 0x18, 0x3e, 0x01, 0x72, 0xbe, 0x3d,
  0x27, 0xdd, 0x8e, 0xbe, 0xf4, 0xc7, 0xc2, 0x3d, 0xaf, 0x5a, 0x89, 0x3e,
  0x95, 0x68, 0xc4, 0x3c, 0x82, 0xa1, 0x0d, 0x3e, 0x3a, 0xaa, 0x00, 0xbe,
  0x6e, 0xbf, 0x95, 0x3d, 0xf0, 0x9f, 0x6d, 0xbe, 0x2f, 0x1b, 0x41, 0xbe,
  0x0b, 0xe2, 0x38, 0x3e, 0xf3, 0x9d, 0x0d, 0xbd, 0x32, 0x57, 0xdd, 0xbb,
  0x79, 0x48, 0x24, 0x3d, 0x37, 0xfc, 0x4c, 0x3e, 0x7d, 0x7c, 0x05, 0xbd,
  0xac, 0xa1, 0x3b, 0x3c, 0x82, 0xdd, 0x09, 0x3e, 0xa3, 0x51, 0x22, 0xbd,
  0xab, 0xfb, 0x63, 0xbd, 0x88, 0x2e, 0xc6, 0x3d, 0xf8, 0x70, 0x13, 0xbd,
  0x84, 0x9d, 0x61, 0xbd, 0xcc, 0xa9, 0x6a, 0x3d, 0x19, 0x98, 0x22, 0xbe,
  0x8a, 0x9f, 0xb1, 0x3e, 0x4a, 0x60, 0xaf, 0xbe, 0xf7, 0x89, 0x5d, 0x3e,
  0x94, 0xa1, 0x1c, 0xbf, 0x29, 0x4f, 0x28, 0x3e, 0x83, 0x9c, 0xb7, 0xbd,
  0xca, 0x50, 0x3c, 0x3e, 0x94, 0x06, 0x75, 0x3c, 0xd1, 0xc2, 0x07, 0xbe,
  0x85, 0x1e, 0x2d, 0xbd, 0x9a, 0xea, 0xd3, 0x3b, 0x5c, 0x4c, 0x1d, 0x3e,
  0x38, 0x7b, 0x37, 0xbe, 0x5b, 0x38, 0xa7, 0x3e, 0xca, 0x8a, 0x6f, 0x3e,
  0xdd, 0x90, 0xac, 0xbe, 0x3d, 0xb9, 0x88, 0x3e, 0xec, 0xb6, 0x35, 0xba,
  0x0a, 0x25, 0x34, 0x3e, 0x14, 0x52, 0xb4, 0xbe, 0x4a, 0xd6, 0xc5, 0xbe,
  0x26, 0x6c, 0xab, 0x3e, 0x71, 0xca, 0x8e, 0xbe, 0xd0, 0x54, 0xf9, 0xbd,
  0xe8, 0xa7, 0x39, 0xbe, 0x87, 0x50, 0x5d, 0x3e, 0xb9, 0x07, 0xd7, 0xbd,
  0x24, 0xd8, 0xe9, 0xbd, 0x7d, 0x4a, 0x14, 0x3d, 0x09, 0x15, 0xcb, 0xbd,
  0x58, 0x42, 0xec, 0xbd, 0x45, 0x97, 0x3b, 0x3c, 0xad, 0xe8, 0x85, 0xbd,
  0x80, 0xd0, 0x56, 0xbd, 0x98, 0xf6, 0xfa, 0xba, 0xac, 0xbe, 0xf8, 0xbb,
  0x00, 0x14, 0x11, 0x3e, 0x26, 0xa5, 0x06, 0x3e, 0x2c, 0x51, 0x06, 0xbc,
  0x6c, 0xb1, 0x83, 0xbe, 0x9a, 0xae, 0x69, 0xbe, 0x6e, 0xb3, 0x42, 0x3e,
  0x2d, 0x9b, 0x06, 0x3e, 0xa4, 0x80, 0x34, 0xbe, 0x2d, 0xb0, 0x12, 0xbe,
  0x57, 0x75, 0x4a, 0x3e, 0x2d, 0x8e, 0xc8, 0x3e, 0xfe, 0xdf, 0xff, 0xff,
  0x10, 0x00, 0x00, 0x00, 0x09, 0x00, 0x00, 0x00, 0x1c, 0x00, 0x00, 0x00,
  0x38, 0x00, 0x00, 0x00, 0x04, 0x00, 0x00, 0x00, 0x08, 0x00, 0x00, 0x00,
  0x04, 0x00, 0x00, 0x00, 0x03, 0x00, 0x00, 0x00, 0x01, 0x00, 0x00, 0x00,
  0x18, 0x00, 0x00, 0x00, 0x73, 0x65, 0x71, 0x75, 0x65, 0x6e, 0x74, 0x69,
  0x61, 0x6c, 0x2f, 0x63, 0x6f, 0x6e, 0x76, 0x32, 0x64, 0x2f, 0x43, 0x6f,
  0x6e, 0x76, 0x32, 0x44, 0x00, 0x00, 0x00, 0x00, 0x74, 0xdf, 0xff, 0xff,
  0x7e, 0xe0, 0xff, 0xff, 0x04, 0x00, 0x00, 0x00, 0xc0, 0x00, 0x00, 0x00,
  0x53, 0x09, 0x4b, 0x3e, 0xf0, 0x6e, 0x8c, 0xbe, 0xba, 0xfc, 0x4b, 0x3e,
  0xef, 0x49, 0xa6, 0xbc, 0xef, 0x53, 0x89, 0x3c, 0x63, 0x7e, 0x5e, 0x3d,
  0xe8, 0xce, 0x0e, 0xbe, 0x06, 0x74, 0x6a, 0xbc, 0x7a, 0xda, 0xb4, 0x3d,
  0x67, 0x01, 0x39, 0x3b, 0x5d, 0x8f, 0x85, 0xbe, 0xf0, 0x1a, 0x90, 0x3e,
  0x76, 0xfb, 0x4f, 0x3d, 0xf4, 0x3b, 0xc9, 0x3e, 0xfd, 0xb3, 0x53, 0x3e,
  0x81, 0xb3, 0x17, 0xbf, 0x01, 0x4c, 0x75, 0xbe, 0xad, 0x1d, 0xd2, 0x3e,
  0x61, 0x5a, 0xcf, 0x3c, 0xa1, 0x7e, 0xb1, 0x3d, 0xb2, 0x1b, 0x6c, 0x3d,
  0xfc, 0xd8, 0x11, 0x3e, 0xb7, 0x92, 0x8e, 0xbd, 0x36, 0x64, 0x35, 0x3e,
  0xa1, 0x21, 0x1d, 0x3e, 0x53, 0xe5, 0x98, 0x3d, 0x97, 0x5e, 0x3e, 0xbe,
  0xfe, 0x87, 0xd3, 0x3e, 0xa9, 0xae, 0x65, 0x3e, 0xe2, 0x51, 0xb6, 0x3e,
  0xc5, 0x3e, 0x89, 0x3e, 0x9e, 0x7a, 0x25, 0xbe, 0x6d, 0x6b, 0xe2, 0xbe,
  0xf0, 0x09, 0xda, 0x3e, 0x69, 0xa4, 0xb2, 0xbe, 0x83, 0x84, 0xf9, 0x3d,
  0xd2, 0x06, 0xbf, 0x3d, 0x40, 0x4b, 0x41, 0xbe, 0x81, 0xe9, 0xfa, 0xbd,
  0xf7, 0x7b, 0x40, 0x3e, 0xcc, 0x4d, 0xd3, 0x3d, 0xfb, 0x42, 0x8c, 0x3c,
  0xc6, 0x1c, 0x22, 0xbe, 0x65, 0x1e, 0xb4, 0x3e, 0xa2, 0x54, 0x1a, 0xbb,
  0xb7, 0xc6, 0xaf, 0x3e, 0xf6, 0xd4, 0x63, 0x3e, 0xf1, 0x87, 0x54, 0x3e,
  0x16, 0xe1, 0xff, 0xff, 0x10, 0x00, 0x00, 0x00, 0x08, 0x00, 0x00, 0x00,
  0x14, 0x00, 0x00, 0x00, 0x30, 0x00, 0x00, 0x00, 0x02, 0x00, 0x00, 0x00,
  0x03, 0x00, 0x00, 0x00, 0x10, 0x00, 0x00, 0x00, 0x19, 0x00, 0x00, 0x00,
  0x73, 0x65, 0x71, 0x75, 0x65, 0x6e, 0x74, 0x69, 0x61, 0x6c, 0x2f, 0x64,
  0x65, 0x6e, 0x73, 0x65, 0x5f, 0x31, 0x2f, 0x4d, 0x61, 0x74, 0x4d, 0x75,
  0x6c, 0x00, 0x00, 0x00, 0x84, 0xe0, 0xff, 0xff, 0x8e, 0xe1, 0xff, 0xff,
  0x04, 0x00, 0x00, 0x00, 0x00, 0x1c, 0x00, 0x00, 0xb5, 0x9b, 0x49, 0xbe,
  0x71, 0x63, 0x59, 0xbe, 0x06, 0x8c, 0x43, 0xbe, 0x78, 0x73, 0xd1, 0x3d,
  0x09, 0xd5, 0xc6, 0x3c, 0xbd, 0x11, 0x61, 0xbd, 0x71, 0x0a, 0x4f, 0xbe,
  0xef, 0x4f, 0x8e, 0xbd, 0xca, 0x62, 0xf1, 0xbd, 0x30, 0x3c, 0x08, 0xbe,
  0x19, 0xb6, 0x95, 0xbd, 0x42, 0x7f, 0x44, 0xbe, 0x0b, 0xc8, 0x93, 0x3d,
  0x8e, 0x5c, 0x92, 0x3d, 0x7c, 0xdf, 0xa4, 0xbe, 0xd8, 0xd5, 0x45, 0x3d,
  0x20, 0xb1, 0x48, 0x3d, 0x6a, 0x3c, 0xa0, 0xbd, 0xa3, 0xae, 0x1b, 0xbe,
  0x88, 0xd2, 0xe8, 0x3d, 0xa5, 0x6a, 0x2f, 0xbc, 0x5c, 0xba, 0xc6, 0x3d,
  0x19, 0x2e, 0x9e, 0xbd, 0xd6, 0x5b, 0x20, 0x3d, 0xa3, 0xaa, 0x51, 0xbb,
  0x1f, 0x26, 0xd3, 0xbc, 0xea, 0xf2, 0x9c, 0xbd, 0x0d, 0xf0, 0x37, 0xbd,
  0xf7, 0xdb, 0x0f, 0xbe, 0xb7, 0xfc, 0xcf, 0x3d, 0xec, 0x11, 0x38, 0xbe,
  0x82, 0x3d, 0x6a, 0xbe, 0x62, 0xc2, 0x2e, 0x3c, 0x1f, 0x35, 0x01, 0xbd,
  0x28, 0x78, 0xb9, 0xbd, 0x31, 0xf7, 0xf7, 0xbd, 0x63, 0x8d, 0xe8, 0x3d,
  0x82, 0x0c, 0x2b, 0xbe, 0xe1, 0x2d, 0x88, 0xbd, 0x70, 0x16, 0xbb, 0x3d,
  0x55, 0x00, 0x87, 0x3d, 0x0c, 0xf1, 0xe0, 0x3d, 0x99, 0x88, 0xf6, 0xbd,
  0xe7, 0xc0, 0x66, 0xbe, 0x72, 0xa5, 0x61, 0xbd, 0x80, 0x14, 0xe9, 0x3d,
  0x82, 0x13, 0x25, 0xbe, 0x67, 0x29, 0x82, 0xbe, 0x67, 0xc6, 0x7c, 0x3d,
  0x02, 0x4b, 0xc2, 0x3d, 0x82, 0xc4, 0xb4, 0xbe, 0xd8, 0xba, 0xf4, 0x3d,
  0x68, 0x23, 0x68, 0x3d, 0xef, 0x79, 0x46, 0xbd, 0x94, 0xc5, 0x1c, 0xbe,
  0x5f, 0x27, 0xa3, 0x3c, 0x0f, 0x68, 0x22, 0xbe, 0x32, 0xe9, 0x16, 0x3e,
  0xd8, 0xd5, 0x2f, 0xbe, 0xe7, 0xb6, 0xcf, 0xbd, 0xef, 0x57, 0x33, 0xbe,
  0x8b, 0x76, 0x6a, 0xbe, 0x05, 0x58, 0x51, 0xbe, 0x56, 0x84, 0x18, 0x3c,
  0x88, 0x20, 0x43, 0x3d, 0x5d, 0x6f, 0x58, 0x3c, 0x23, 0x93, 0x8e, 0xbe,
  0x8b, 0x49, 0x46, 0xbe, 0x8b, 0x3b, 0xb5, 0x3b, 0xc6, 0x27, 0xae, 0x3d,
  0x4b, 0xc0, 0x04, 0xbc, 0x2d, 0x7d, 0x40, 0xbe, 0x63, 0x18, 0x3d, 0xbe,
  0xcc, 0x33, 0xfc, 0xbd, 0x0d, 0x90, 0x86, 0xbd, 0xd8, 0x44, 0x16, 0xbe,
  0x24, 0xea, 0x90, 0x3a, 0xad, 0x2f, 0x07, 0xbe, 0x07, 0x92, 0x37, 0xbe,
  0x26, 0xf3, 0x92, 0xbe, 0x6b, 0xe6, 0x35, 0xbd, 0x9e, 0xc3, 0xae, 0xbd,
  0xb7, 0xe4, 0x8c, 0xbe, 0xc0, 0x80, 0x77, 0xbc, 0x49, 0x25, 0xe5, 0x3d,
  0x56, 0x44, 0x22, 0x3e, 0xbf, 0xe6, 0x7d, 0xbc, 0x64, 0xaa, 0xba, 0x3c,
  0x45, 0x66, 0x45, 0xbe, 0x60, 0xd8, 0x50, 0x3e, 0x82, 0x62, 0xcc, 0x3d,
  0xc7, 0x6c, 0x67, 0xbe, 0x02, 0x03, 0xca, 0x3d, 0xa3, 0x99, 0x11, 0x3e,
  0x36, 0x2c, 0x0b, 0xbe, 0xe8, 0x2f, 0x89, 0xbb, 0xfb, 0x3d, 0x43, 0x3b,
  0x4a, 0x80, 0x4f, 0xbc, 0x23, 0xa1, 0x8b, 0xbe, 0xbc, 0x74, 0x05, 0xbd,
  0x56, 0xe4, 0xdb, 0xbd, 0x85, 0x85, 0x9d, 0x3d, 0x01, 0xe9, 0xe0, 0x3d,
  0x89, 0xac, 0xb6, 0xbd, 0xc5, 0x35, 0x4a, 0xbe, 0x26, 0xa9, 0x91, 0xbd,
  0xfc, 0xb4, 0xad, 0x3c, 0x50, 0x48, 0xf6, 0xbd, 0x5b, 0x94, 0x92, 0x3d,
  0xce, 0x4e, 0xfa, 0x3d, 0x5f, 0x0d, 0x74, 0xbe, 0xe6, 0xfd, 0x65, 0xbe,
  0xaf, 0x48, 0x1a, 0xbe, 0x78, 0x7d, 0xb0, 0x3d, 0x8c, 0x31, 0xc7, 0xbc,
  0x6d, 0xa4, 0x9c, 0x3d, 0xc6, 0xe4, 0x2e, 0x3b, 0x32, 0x5d, 0x46, 0xbe,
  0x0f, 0x5f, 0x2e, 0xbe, 0x6d, 0x21, 0x5d, 0xbe, 0x6c, 0xa3, 0xaa, 0xbc,
  0x44, 0x95, 0x7f, 0x3d, 0xa3, 0x90, 0x32, 0x3d, 0x84, 0x0b, 0xa2, 0xbd,
  0x55, 0x60, 0x2d, 0x3e, 0x0f, 0x9d, 0xa0, 0xbc, 0x17, 0xa5, 0x4f, 0x3e,
  0x55, 0x12, 0xe1, 0xbd, 0x70, 0xc0, 0x81, 0xbd, 0x17, 0x58, 0x5d, 0xbd,
  0xfd, 0x3e, 0xa8, 0xbd, 0x0e, 0xae, 0x08, 0xbe, 0x7d, 0xfc, 0xa7, 0xbb,
  0xd8, 0x92, 0x4f, 0xbe, 0xa4, 0x81, 0xd8, 0x3d, 0x39, 0x49, 0x3a, 0xbd,
  0x9b, 0xb3, 0x7b, 0xbe, 0x47, 0x0e, 0x10, 0xbd, 0x37, 0xda, 0x83, 0xbe,
  0x8b, 0xa5, 0x87, 0xbe, 0x1e, 0xd7, 0xb4, 0xbd, 0xf1, 0xd0, 0x34, 0x3c,
  0x67, 0x1c, 0x7e, 0xbe, 0x75, 0x95, 0xfd, 0xbd, 0xe6, 0x22, 0xf0, 0x3d,
  0x71, 0xd6, 0x93, 0xbc, 0xa9, 0xd1, 0xb1, 0xbd, 0xcf, 0xde, 0xc7, 0xbd,
  0x73, 0x22, 0x09, 0x3d, 0x19, 0x7e, 0x29, 0x3e, 0xf7, 0x49, 0x04, 0xbd,
  0xe4, 0x86, 0x91, 0xbe, 0xde, 0x01, 0x33, 0xbd, 0x8c, 0xba, 0x61, 0xbd,
  0x03, 0x47, 0x3b, 0x3d, 0x41, 0x74, 0xe9, 0xbd, 0xba, 0xb1, 0x5d, 0xbd,
  0x24, 0x61, 0x08, 0xbe, 0x10, 0xaf, 0xbf, 0xbe, 0x8e, 0xd7, 0xee, 0x3a,
  0xba, 0xf6, 0x53, 0x3e, 0x95, 0x38, 0x9c, 0xbd, 0x67, 0xc1, 0x8d, 0xbe,
  0x25, 0x31, 0x72, 0x3c, 0x5a, 0xc2, 0x22, 0xbe, 0x16, 0xda, 0x00, 0xbe,
  0x07, 0x55, 0xf7, 0xbc, 0x7b, 0x92, 0xd7, 0xbc, 0xa8, 0xf5, 0x58, 0xbe,
  0xaa, 0x1d, 0xca, 0x3d, 0xca, 0x15, 0x85, 0xbe, 0x3a, 0x31, 0xdc, 0xbd,
  0xc3, 0x8e, 0x39, 0x3e, 0x5d, 0x65, 0x2f, 0xbe, 0xc1, 0xf2, 0x89, 0xbe,
  0x97, 0xce, 0x00, 0x3e, 0x72, 0xc2, 0x6a, 0x3c, 0xd0, 0x72, 0xe0, 0xbd,
  0x59, 0x86, 0x24, 0xbe, 0xe7, 0x98, 0x89, 0xbe, 0xe5, 0x55, 0xcd, 0xbd,
  0x64, 0x87, 0x1a, 0x3e, 0xb1, 0x5b, 0xd7, 0x3d, 0x03, 0xec, 0x2c, 0x3d,
  0xbd, 0x43, 0x51, 0xbe, 0xce, 0xe4, 0x63, 0xbd, 0x74, 0x96, 0x9c, 0xbe,
  0x86, 0x49, 0x8c, 0xbd, 0x0c, 0x79, 0xf5, 0xbc, 0x6b, 0x82, 0x8c, 0xbd,
  0xc8, 0xa1, 0x6c, 0xbd, 0xc6, 0x45, 0x7e, 0x3d, 0xbf, 0x16, 0x83, 0xbe,
  0x11, 0x97, 0x54, 0xbe, 0xfd, 0xf0, 0x47, 0xbe, 0xca, 0xb6, 0xc3, 0xbd,
  0xf9, 0x54, 0x1c, 0xbe, 0x9d, 0x3d, 0x9f, 0x3d, 0xd2, 0x69, 0x5e, 0xbe,
  0x90, 0x0f, 0x36, 0xbe, 0x2a, 0x4c, 0x44, 0x3d, 0x25, 0x4e, 0xb2, 0xbd,
  0x2a, 0x41, 0x06, 0xbd, 0xa6, 0x65, 0x8b, 0x3d, 0xf0, 0x4e, 0x1c, 0x3e,
  0x04, 0x94, 0xf8, 0x3b, 0x9b, 0x10, 0x0a, 0xbe, 0x1b, 0x2a, 0xc3, 0x3d,
  0x39, 0x7c, 0x5f, 0x3c, 0x8e, 0x6e, 0x37, 0xbe, 0x0e, 0x97, 0x5e, 0xbc,
  0x60, 0xc3, 0x95, 0x3d, 0xd6, 0x19, 0xc4, 0x3c, 0xee, 0x35, 0xf7, 0x3c,
  0x00, 0x9a, 0x82, 0xbd, 0xb9, 0x32, 0xad, 0xbd, 0x82, 0xcd, 0x99, 0xbc,
  0x31, 0xaf, 0xc3, 0x3d, 0x1a, 0x40, 0x39, 0xbe, 0x51, 0x51, 0x3f, 0x38,
  0xcd, 0x0e, 0xce, 0xba, 0xca, 0x95, 0x81, 0x3e, 0x0d, 0x75, 0xe6, 0x3d,
  0x1b, 0x4c, 0x08, 0xbc, 0x8f, 0xbe, 0x12, 0xbe, 0xfa, 0x46, 0x24, 0xbe,
  0x26, 0x2e, 0xf6, 0xbd, 0x4d, 0x97, 0xc3, 0xbd, 0xef, 0x0b, 0x8c, 0xbc,
  0x10, 0xb6, 0x36, 0xbe, 0x63, 0xd4, 0x3d, 0xbe, 0x41, 0xdd, 0xd9, 0xbd,
  0x1b, 0x6d, 0xde, 0xbd, 0x5f, 0x29, 0xd0, 0x3d, 0x4a, 0x5b, 0x6d, 0xbe,
  0x58, 0xd7, 0xc4, 0x3d, 0x48, 0xcc, 0x93, 0x3d, 0x3c, 0x34, 0xb2, 0xbd,
  0x06, 0x5a, 0xb6, 0xbd, 0xcf, 0x48, 0x65, 0xbc, 0x24, 0x4f, 0xee, 0x3d,
  0xab, 0xfa, 0x1f, 0x3d, 0xf3, 0xa6, 0x37, 0xbe, 0xd4, 0xb1, 0xaf, 0xbc,
  0x2e, 0x72, 0x35, 0xbe, 0xd3, 0xc5, 0xdb, 0x3c, 0x90, 0x68, 0xfe, 0x3d,
  0x60, 0xa1, 0xa3, 0x3d, 0x76, 0x56, 0x46, 0xbe, 0x4c, 0x3d, 0x73, 0xbe,
  0x8e, 0x99, 0x96, 0x3c, 0x46, 0xb1, 0x82, 0x3c, 0x4f, 0xfc, 0x29, 0x3e,
  0xf6, 0xb9, 0x22, 0x3e, 0x5d, 0xd9, 0x99, 0xbd, 0x23, 0x15, 0x0f, 0xbe,
  0xc3, 0xe7, 0x2b, 0xbe, 0x6d, 0xd0, 0x45, 0xbe, 0x9e, 0x87, 0x50, 0xbe,
  0x0a, 0xc3, 0xd1, 0x3c, 0x43, 0x58, 0x55, 0xbc, 0xcb, 0x86, 0x33, 0x3e,
  0xd9, 0x21, 0x02, 0xbe, 0x17, 0x7d, 0xe6, 0x3d, 0x05, 0x53, 0x17, 0xbe,
  0xbc, 0x6a, 0x2f, 0xbe, 0xbd, 0xd8, 0x81, 0xbc, 0x9e, 0xd5, 0xc5, 0x3c,
  0x82, 0xb8, 0x7d, 0xbd, 0x35, 0xb6, 0x34, 0xbe, 0x89, 0xa8, 0x30, 0xbe,
  0x0f, 0xd8, 0xda, 0x3d, 0xbe, 0x20, 0xb4, 0xbc, 0xef, 0xd1, 0x1c, 0x3e,
  0x05, 0x7d, 0x08, 0xbe, 0xf8, 0x4d, 0xe5, 0xbd, 0x3c, 0x3d, 0xca, 0xba,
  0xeb, 0xf9, 0x34, 0x3d, 0x08, 0xe9, 0xdd, 0xbd, 0x75, 0xdf, 0x28, 0xbe,
  0xa6, 0xc8, 0xa7, 0x3d, 0x60, 0xfc, 0x5c, 0xbe, 0xbe, 0x1b, 0xea, 0x3d,
  0x2a, 0x76, 0xfa, 0x3d, 0xd9, 0x18, 0x21, 0xbe, 0x57, 0x99, 0xc4, 0x3d,
  0xb8, 0xa6, 0xec, 0xbd, 0x29, 0x50, 0x34, 0x3e, 0xf1, 0x1e, 0x69, 0x3d,
  0xdb, 0x53, 0x9b, 0x3d, 0x0f, 0x98, 0x95, 0x3d, 0x22, 0x69, 0xec, 0x3d,
  0x5e, 0xd1, 0xed, 0xbd, 0xd4, 0x26, 0xe7, 0xbd, 0x4b, 0x21, 0x68, 0xbd,
  0xfd, 0x14, 0xfd, 0x3d, 0x80, 0x6d, 0x13, 0xbe, 0x15, 0xa3, 0xce, 0x3d,
  0x9c, 0xf6, 0x43, 0xbe, 0xc2, 0xc1, 0x03, 0xbe, 0x42, 0x2a, 0xf3, 0xbd,
  0x8c, 0xb9, 0x70, 0x3c, 0x51, 0x64, 0xdf, 0x3c, 0x66, 0x1e, 0x05, 0xbe,
  0x3a, 0xed, 0x01, 0xbe, 0x7c, 0x1b, 0x82, 0xbc, 0x7e, 0x3e, 0xc1, 0xbd,
  0xfe, 0xee, 0x49, 0x3d, 0x9a, 0xd5, 0xac, 0xbd, 0xd3, 0xed, 0xd0, 0xbc,
  0x4d, 0x73, 0x0b, 0xbe, 0x0c, 0x79, 0xc2, 0xbd, 0xe2, 0xa4, 0x32, 0xbe,
  0x34, 0xe8, 0x95, 0x3d, 0x73, 0xeb, 0xba, 0xbd, 0xf4, 0x2b, 0xbc, 0xbd,
  0x79, 0xe8, 0x22, 0x3e, 0xd6, 0x6d, 0x5b, 0xbe, 0x5e, 0x38, 0xbf, 0xbd,
  0xc9, 0xfc, 0xf7, 0xbd, 0xce, 0x32, 0xb0, 0x3d, 0xed, 0xeb, 0xde, 0x3d,
  0x80, 0x87, 0x91, 0xbe, 0x8e, 0x92, 0x1d, 0xbe, 0x49, 0xa1, 0x50, 0xbe,
  0x20, 0xd5, 0x81, 0xbd, 0x07, 0xe9, 0x9b, 0xbd, 0x5e, 0x64, 0xbf, 0x3d,
  0xd7, 0x3f, 0xf0, 0xbd, 0x89, 0x9a, 0xc4, 0x3c, 0xdc, 0x3c, 0x04, 0xbe,
  0x94, 0x03, 0x8a, 0xbe, 0xb5, 0x53, 0x2a, 0xbd, 0xf3, 0x3e, 0x6a, 0xbd,
  0x7e, 0xf7, 0x56, 0xbe, 0x54, 0xe3, 0xde, 0xbd, 0x3c, 0xe2, 0x45, 0x3e,
  0x00, 0x91, 0x4c, 0xbe, 0x90, 0x26, 0xb9, 0xbc, 0x4a, 0xf7, 0x8f, 0x3e,
  0x11, 0x34, 0x01, 0xbf, 0xae, 0x44, 0x4a, 0xbd, 0x64, 0x4e, 0x7d, 0x3e,
  0x97, 0x49, 0x7e, 0xbe, 0x00, 0xab, 0x22, 0xbe, 0x96, 0xcd, 0x3a, 0x3e,
  0x7c, 0x9d, 0xf8, 0x3d, 0xb8, 0x5a, 0x45, 0xbe, 0xb2, 0xb0, 0x38, 0xbe,
  0x31, 0x5e, 0xd6, 0x3c, 0x9c, 0x2a, 0x68, 0xbe, 0x56, 0x87, 0xa6, 0x3e,
  0x4e, 0xed, 0xc0, 0xbd, 0xd2, 0xb2, 0x62, 0xbd, 0x58, 0x1d, 0xb0, 0x3d,
  0x0c, 0x3c, 0xa2, 0xbe, 0xd3, 0x60, 0xa8, 0xbe, 0x51, 0x8c, 0xf1, 0x3d,
  0x7d, 0x18, 0x28, 0x3e, 0x0f, 0x56, 0x13, 0xbf, 0xce, 0x32, 0xf1, 0xbe,
  0x8d, 0x2b, 0xdb, 0x3d, 0xcb, 0x07, 0xb1, 0xbc, 0x1d, 0xad, 0xe1, 0xbd,
  0x45, 0x59, 0x59, 0x3e, 0xa6, 0x73, 0x32, 0x3d, 0x3c, 0xc5, 0xca, 0x3d,
  0x32, 0x86, 0x0f, 0x3e, 0xc8, 0x43, 0x8d, 0x3d, 0x60, 0x5e, 0xd5, 0xbc,
  0xc3, 0x9a, 0xc5, 0xbc, 0x7f, 0xa5, 0x1c, 0xbe, 0xfd, 0x36, 0x10, 0xbe,
  0xf1, 0x56, 0xe7, 0x3d, 0x96, 0x5f, 0xa7, 0x3d, 0xfd, 0x13, 0x8c, 0xbe,
  0x8d, 0x42, 0x4e, 0xbd, 0x9a, 0x56, 0x6e, 0xbd, 0x93, 0x73, 0xd7, 0x3c,
  0x82, 0x92, 0x0f, 0xbe, 0x51, 0x08, 0xa3, 0x3d, 0x60, 0x40, 0xf8, 0x3c,
  0x8e, 0xa2, 0x32, 0x3e, 0xcd, 0x8e, 0x1b, 0xbd, 0x36, 0x80, 0x09, 0x3d,
  0xde, 0x83, 0x73, 0xbd, 0x62, 0x94, 0x56, 0x3c, 0x29, 0xe9, 0x4e, 0xbe,
  0x65, 0x46, 0x5b, 0xbe, 0xfe, 0xd3, 0x39, 0xbe, 0xe4, 0x1e, 0x91, 0x3e,
  0x36, 0xdf, 0x7c, 0xbe, 0x56, 0xd1, 0x95, 0xbe, 0x43, 0x8e, 0xb7, 0x3d,
  0x9d, 0x1b, 0x0f, 0xbb, 0xf0, 0xd1, 0xcf, 0xbd, 0xba, 0x75, 0x5c, 0x3e,
  0x07, 0xb0, 0xba, 0x3d, 0x99, 0xd5, 0x5a, 0x3d, 0x1e, 0x75, 0xaa, 0xbd,
  0x34, 0xcd, 0x4f, 0x3e, 0xb1, 0xfe, 0x84, 0xbd, 0xde, 0xbd, 0x23, 0x3b,
  0xd4, 0x19, 0x8e, 0xbe, 0xdb, 0xd8, 0x61, 0xbe, 0xf1, 0x04, 0x6a, 0x3d,
  0x55, 0xce, 0xaf, 0x3d, 0x5e, 0x38, 0x86, 0xbe, 0x11, 0xc8, 0x87, 0xbe,
  0x5e, 0xb2, 0xe9, 0x3d, 0xc9, 0x53, 0x8d, 0xbb, 0x4d, 0x8d, 0x5f, 0xbd,
  0x71, 0xc5, 0x58, 0x3e, 0x50, 0xae, 0x30, 0xbd, 0x6f, 0x03, 0x8e, 0x3c,
  0x29, 0xa8, 0x26, 0x3e, 0x15, 0xe8, 0x07, 0x3e, 0x05, 0x69, 0xe2, 0xbe,
  0xbe, 0x71, 0x40, 0x3c, 0xa3, 0xe9, 0xe5, 0xbe, 0x30, 0x58, 0xdf, 0xbe,
  0x70, 0x39, 0xad, 0xbd, 0xca, 0x8d, 0xe7, 0xbd, 0xb6, 0xb8, 0x9c, 0xbe,
  0x5a, 0xad, 0x9d, 0xbe, 0x5a, 0xf5, 0x29, 0x3e, 0x67, 0xbd, 0x50, 0x3d,
  0xf5, 0xe5, 0x9c, 0xbd, 0xab, 0x32, 0x8b, 0x3e, 0x71, 0x87, 0x6d, 0xbd,
  0xfe, 0xe9, 0x32, 0x3e, 0x17, 0x70, 0xc6, 0x3d, 0xc6, 0xb4, 0xe8, 0xbd,
  0xfb, 0x77, 0xe4, 0xbe, 0xf1, 0x21, 0x3e, 0x3c, 0x42, 0x59, 0x04, 0xbe,
  0xe8, 0x69, 0xc2, 0x3d, 0x12, 0x0d, 0x9c, 0x3e, 0x76, 0xf4, 0x8f, 0x3d,
  0x73, 0x3b, 0x89, 0xbe, 0x98, 0xe6, 0xfc, 0xbc, 0xc1, 0x56, 0x03, 0x3f,
  0x4b, 0x12, 0xf3, 0x3d, 0x2d, 0x78, 0x3d, 0xbd, 0x6e, 0xba, 0x87, 0x3e,
  0x9d, 0xc1, 0x02, 0x3e, 0x89, 0x06, 0xae, 0x3b, 0x06, 0xb4, 0x3d, 0x3e,
  0xd7, 0x43, 0x0f, 0x3f, 0xf9, 0xd7, 0x13, 0xbe, 0x1b, 0xb9, 0x86, 0xbe,
  0x0e, 0xb3, 0x8e, 0x3e, 0x65, 0xcc, 0x7c, 0xbe, 0x6b, 0x05, 0x78, 0xbc,
  0xed, 0x38, 0xba, 0x3e, 0x50, 0xb4, 0x8b, 0xbd, 0xf9, 0x5d, 0x4c, 0x3d,
  0xef, 0xff, 0x70, 0xbd, 0x6b, 0x67, 0xcc, 0xbe, 0x59, 0x7f, 0xed, 0xbd,
  0xa7, 0x03, 0x31, 0x3c, 0x96, 0xe8, 0x49, 0xbe, 0xed, 0x14, 0x1e, 0x3e,
  0x03, 0x2d, 0x4b, 0x3f, 0x55, 0x07, 0xfd, 0x3d, 0x6d, 0xd5, 0x0a, 0x3d,
  0x46, 0xa4, 0x40, 0xbe, 0x0b, 0xf7, 0x25, 0x3e, 0xd5, 0x65, 0xb2, 0x3d,
  0xf0, 0x4a, 0x15, 0xbe, 0x4d, 0xa9, 0x0a, 0x3e, 0xb1, 0x40, 0xf9, 0xbd,
  0xe6, 0x31, 0xc8, 0xbd, 0x54, 0x4f, 0x81, 0x3e, 0x6f, 0x27, 0x9f, 0x3d,
  0x95, 0x4d, 0xbd, 0xbe, 0xe1, 0xf9, 0x41, 0x3d, 0x6b, 0x25, 0x81, 0xbe,
  0x1e, 0x8d, 0x1a, 0x3d, 0x3c, 0x58, 0xc4, 0x3d, 0xf8, 0xac, 0x8c, 0x3d,
  0x7e, 0x60, 0x0e, 0xbe, 0x43, 0x4b, 0xfd, 0xbd, 0x22, 0xd5, 0xd8, 0x3c,
  0xc1, 0x63, 0x33, 0x3d, 0x03, 0xc2, 0x3f, 0x3e, 0xa5, 0x4b, 0x2a, 0x3e,
  0x38, 0x58, 0xf4, 0x3d, 0x49, 0x47, 0x55, 0x3c, 0xd5, 0x0b, 0x02, 0x3e,
  0xef, 0xe1, 0x80, 0x3d, 0xdb, 0x0e, 0x84, 0x3d, 0x8c, 0x51, 0xb4, 0x3e,
  0x50, 0x44, 0x15, 0xbe, 0x01, 0x84, 0x09, 0x3e, 0x3e, 0x2c, 0xeb, 0xbb,
  0xfa, 0x78, 0xc0, 0x3d, 0xc8, 0x20, 0x77, 0x3d, 0xd2, 0xe9, 0x2b, 0xbe,
  0x2c, 0xc9, 0xf0, 0xbb, 0xc9, 0xd6, 0x67, 0xbd, 0x62, 0x58, 0x80, 0x3d,
  0x24, 0x71, 0xcc, 0x3d, 0xe7, 0x7e, 0x45, 0x3e, 0x8e, 0xe7, 0x57, 0x3d,
  0xaa, 0x5c, 0x43, 0x3e, 0xa9, 0xab, 0x7b, 0xbd, 0x7f, 0x57, 0x1d, 0xbe,
  0x16, 0x52, 0x90, 0x3e, 0xfb, 0xf3, 0x9c, 0xbe, 0x74, 0x0f, 0x47, 0x3e,
  0x6e, 0x12, 0x8c, 0x3d, 0x62, 0x22, 0x0b, 0x3d, 0x86, 0x48, 0xa4, 0xbd,
  0xa1, 0xbf, 0x25, 0xbe, 0xcb, 0x4a, 0xf1, 0x3c, 0x7c, 0xda, 0x85, 0x3c,
  0x95, 0x46, 0x94, 0xbd, 0xe8, 0x70, 0x3f, 0x3e, 0x82, 0xc6, 0x88, 0x3d,
  0x3d, 0xc6, 0x29, 0x3c, 0x45, 0x35, 0x3b, 0x3e, 0x24, 0x93, 0xb7, 0x3b,
  0x0a, 0x56, 0xb9, 0xbd, 0x9e, 0x54, 0x02, 0x3f, 0x9b, 0x9c, 0x07, 0x3e,
  0x5b, 0x36, 0x45, 0x3e, 0xba, 0x0b, 0x12, 0x3d, 0xca, 0x89, 0x0f, 0xbe,
  0x9a, 0x1b, 0x58, 0xbe, 0x34, 0xa9, 0x47, 0xbe, 0x1b, 0x3a, 0x35, 0x3d,
  0x25, 0xfb, 0xb8, 0x3c, 0x1b, 0xc0, 0xec, 0x3d, 0x68, 0xdd, 0xcb, 0x3d,
  0x43, 0x67, 0x29, 0x3e, 0xa2, 0xc6, 0x39, 0xbd, 0xdf, 0x2b, 0x18, 0x3e,
  0x51, 0xae, 0xdd, 0x3c, 0x50, 0x30, 0xec, 0xbd, 0x22, 0xc6, 0xa0, 0x3e,
  0xa5, 0x9c, 0x50, 0xbd, 0xcc, 0xa1, 0xa6, 0x3d, 0xc5, 0x12, 0x2d, 0xbc,
  0x07, 0xf0, 0xe0, 0xbc, 0x56, 0x88, 0x09, 0xbf, 0x92, 0x48, 0x9c, 0xbe,
  0xbc, 0xe5, 0x97, 0x3d, 0xa6, 0x3a, 0xd9, 0xbd, 0x93, 0x52, 0xc0, 0x3e,
  0x59, 0x0a, 0x96, 0xbc, 0xb5, 0x69, 0x1b, 0xbb, 0x6e, 0xd6, 0x2b, 0xbe,
  0x0d, 0x97, 0x72, 0x3e, 0x0e, 0x1d, 0x4a, 0xbe, 0xda, 0xa0, 0x5e, 0xbe,
  0x2f, 0x79, 0x01, 0x3e, 0x94, 0xc8, 0x7a, 0xbd, 0x33, 0xad, 0x17, 0xbe,
  0xae, 0x51, 0x1e, 0xbd, 0x9d, 0xb5, 0x91, 0xbe, 0x79, 0x35, 0xe7, 0xbb,
  0xb5, 0xea, 0xa0, 0xbe, 0xe5, 0x99, 0x5a, 0xbe, 0xbd, 0xba, 0xc1, 0xbe,
  0x36, 0x34, 0xa9, 0x3d, 0x26, 0x9a, 0x1e, 0xbe, 0x27, 0xc4, 0x41, 0xbe,
  0xd8, 0x4d, 0x4d, 0xbe, 0x3e, 0x8e, 0x72, 0xbe, 0x60, 0xc3, 0x28, 0xbe,
  0x30, 0x71, 0x75, 0xbd, 0x9b, 0xb8, 0x60, 0x3d, 0x94, 0xbd, 0xb4, 0xbd,
  0x60, 0xb5, 0xc9, 0xbb, 0xc9, 0x4b, 0xac, 0xbe, 0x4a, 0x07, 0x66, 0xbe,
  0xc3, 0x01, 0x54, 0x3e, 0xaa, 0x3e, 0xb0, 0xbe, 0x0d, 0x47, 0x0b, 0xbe,
  0x61, 0x72, 0xa5, 0xbe, 0x90, 0xdd, 0xfe, 0xbd, 0x42, 0x22, 0x60, 0xbe,
  0x02, 0x15, 0x0d, 0xbc, 0xae, 0xe2, 0x8b, 0xbe, 0x18, 0x61, 0x7c, 0xbc,
  0x07, 0x56, 0xb7, 0xbe, 0xdf, 0xf2, 0x0d, 0xbe, 0x79, 0x98, 0x7a, 0xbd,
  0xe0, 0x0c, 0x1b, 0xbd, 0x58, 0x1c, 0x12, 0x3c, 0x46, 0x4b, 0x96, 0xbd,
  0xe2, 0x80, 0xae, 0x3b, 0xdf, 0x1a, 0x2a, 0x3e, 0x9b, 0x2a, 0x80, 0xbe,
  0xcd, 0x04, 0xb6, 0xbd, 0xc7, 0xfb, 0x1e, 0xbc, 0x83, 0x36, 0xf1, 0xbd,
  0xee, 0x3d, 0x61, 0xbe, 0x83, 0xcf, 0x21, 0xbd, 0x65, 0x55, 0xb2, 0xbe,
  0x08, 0x85, 0x45, 0xbe, 0x9c, 0x82, 0x7d, 0xbe, 0xdd, 0x94, 0x03, 0xbc,
  0x49, 0x29, 0xf1, 0x3d, 0x0f, 0xe8, 0x31, 0xbe, 0x7e, 0x20, 0x35, 0xbd,
  0xd4, 0x27, 0x4a, 0xbe, 0x05, 0xa5, 0x84, 0xbe, 0x26, 0x5c, 0x7b, 0x3e,
  0x22, 0x7e, 0x43, 0xbe, 0x1e, 0xf1, 0x07, 0xbe, 0x4f, 0x80, 0x0c, 0x3e,
  0x9d, 0x3b, 0x74, 0x3d, 0xc8, 0x5c, 0x93, 0xbd, 0x32, 0x91, 0x88, 0x3d,
  0xcb, 0xfc, 0xbd, 0x3d, 0x17, 0x4d, 0x0f, 0x3e, 0xa9, 0xf4, 0xd8, 0xbc,
  0x22, 0xaf, 0x08, 0xbe, 0xb5, 0x75, 0x59, 0x3e, 0xd4, 0x4b, 0x96, 0xbe,
  0xf7, 0xb7, 0xcf, 0xbd, 0x8d, 0xcb, 0x42, 0xbe, 0xa6, 0xb5, 0x48, 0x3c,
  0xb4, 0xbf, 0x87, 0x3e, 0x33, 0x5d, 0x5c, 0xbe, 0x3d, 0x08, 0x5f, 0xbe,
  0x67, 0x21, 0x52, 0x3e, 0x69, 0xd7, 0xbf, 0xbd, 0x78, 0x65, 0x1b, 0x3d,
  0xac, 0x89, 0x9d, 0x3d, 0x16, 0x31, 0x52, 0xbe, 0x53, 0x7a, 0xca, 0xbd,
  0x27, 0xc6, 0xc6, 0x3c, 0x10, 0x8a, 0xea, 0x3d, 0xd3, 0x45, 0x94, 0xbe,
  0xfb, 0x0e, 0xd2, 0xbe, 0x13, 0x90, 0x28, 0xbd, 0x0c, 0x3e, 0x52, 0x3d,
  0x33, 0x5a, 0x7b, 0x3e, 0xd4, 0x7b, 0x1e, 0x3e, 0xf9, 0xea, 0x01, 0xbd,
  0xc8, 0xb4, 0x08, 0x3d, 0x2f, 0xfa, 0x6a, 0x3e, 0x74, 0x9d, 0x35, 0x3b,
  0x5b, 0x14, 0xf7, 0x3d, 0x4a, 0x71, 0x3f, 0x3e, 0xa7, 0x70, 0x09, 0xbe,
  0x5c, 0x4b, 0x7d, 0x3e, 0xff, 0xe3, 0x65, 0x3e, 0xfc, 0x26, 0xfe, 0xbd,
  0x11, 0x13, 0x5b, 0x3c, 0x4a, 0xe3, 0x00, 0xbe, 0x51, 0x13, 0x33, 0xbe,
  0x9c, 0xdd, 0xf1, 0x3d, 0x2c, 0x7c, 0xd8, 0x3d, 0x86, 0xeb, 0x88, 0x3d,
  0x08, 0x39, 0x1f, 0x3e, 0x32, 0x41, 0xe5, 0xbd, 0x7e, 0xa1, 0x45, 0xbd,
  0x6c, 0x3a, 0x3b, 0xbe, 0x3b, 0x32, 0x95, 0xbe, 0x36, 0x1f, 0x57, 0xbe,
  0x35, 0xee, 0x87, 0xbc, 0xb4, 0xb9, 0x08, 0xbe, 0xc3, 0xa7, 0x99, 0xbc,
  0xe0, 0xb1, 0xdc, 0xbd, 0xf7, 0x80, 0x49, 0xbd, 0x3e, 0x44, 0xb3, 0x3d,
  0xb8, 0x79, 0x85, 0xbe, 0x0a, 0xe8, 0x7f, 0x3e, 0x5c, 0x7e, 0xa8, 0xbe,
  0xad, 0xb4, 0x07, 0x3e, 0x0c, 0x6c, 0x17, 0xbe, 0xa3, 0x53, 0x40, 0xbf,
  0xc1, 0xbc, 0xa5, 0x3d, 0x69, 0xeb, 0x24, 0xbd, 0x38, 0x35, 0xd4, 0xbd,
  0xa9, 0xaf, 0x44, 0x3c, 0x76, 0x2c, 0xa0, 0xbe, 0x3d, 0x85, 0x26, 0xbf,
  0x5c, 0x01, 0x25, 0xbf, 0x0a, 0x40, 0x02, 0xbf, 0xc8, 0xc4, 0x2a, 0x3f,
  0x0f, 0xac, 0xa3, 0xbe, 0x1f, 0x45, 0x8f, 0x3e, 0xba, 0x8a, 0x03, 0xbf,
  0xed, 0xf4, 0xbf, 0x3e, 0x18, 0xac, 0x39, 0x3e, 0xce, 0x14, 0xe3, 0xbd,
  0x3b, 0xc1, 0xd8, 0xbc, 0x4d, 0xe0, 0xc3, 0x3d, 0xee, 0xe1, 0x80, 0x3d,
  0xd3, 0x82, 0xc3, 0xbc, 0x3b, 0xe7, 0x01, 0x3d, 0x9c, 0x14, 0x02, 0xbe,
  0x59, 0xb0, 0x87, 0xbe, 0x1d, 0xc4, 0xae, 0xbc, 0xf8, 0x74, 0xe3, 0xbe,
  0x6b, 0x19, 0x63, 0xbd, 0x9a, 0xbb, 0xa5, 0xbd, 0x0b, 0x06, 0x6d, 0xbe,
  0xa9, 0x00, 0x16, 0x3e, 0xb6, 0x72, 0x57, 0x3d, 0x9d, 0x93, 0x04, 0xbe,
  0x60, 0x36, 0xae, 0x3b, 0x00, 0x96, 0x00, 0x3d, 0xec, 0x94, 0x0a, 0x3e,
  0x11, 0x86, 0x2a, 0xbe, 0x4b, 0xed, 0xa5, 0xbd, 0xd4, 0x44, 0x38, 0x3d,
  0xb1, 0xf5, 0x11, 0xbe, 0x7b, 0xbb, 0xa7, 0x3d, 0x4e, 0x22, 0xaa, 0x3d,
  0x14, 0x0a, 0x81, 0xbe, 0x34, 0x02, 0xe7, 0xbd, 0xfe, 0x56, 0x15, 0xbd,
  0x2f, 0x27, 0xb3, 0xbe, 0xb3, 0x85, 0xcf, 0x3d, 0x95, 0x2c, 0xe8, 0x3c,
  0xd6, 0x88, 0x1e, 0xbf, 0x74, 0x5f, 0x27, 0x3d, 0x4a, 0xb2, 0x86, 0xbc,
  0xd2, 0xda, 0x41, 0xbe, 0xb4, 0x5e, 0x57, 0x3c, 0x5c, 0xab, 0xba, 0xbd,
  0x91, 0x85, 0x45, 0xbe, 0x68, 0x1d, 0x39, 0xbd, 0x44, 0xe6, 0x1d, 0x3c,
  0xdc, 0xf1, 0x11, 0x3e, 0x7f, 0x1a, 0x1b, 0xbe, 0x22, 0x4a, 0x99, 0xbd,
  0x09, 0x1e, 0x8d, 0x3d, 0x7b, 0xf3, 0x0c, 0xbf, 0x82, 0x03, 0x0e, 0xbd,
  0x32, 0x2c, 0xc5, 0xbd, 0xc5, 0xa3, 0xa4, 0xbe, 0x70, 0xe1, 0xbc, 0x3d,
  0xcb, 0xbe, 0x09, 0xbe, 0x89, 0x9d, 0xcd, 0xbd, 0x50, 0x6d, 0x6c, 0x3c,
  0xe7, 0xb9, 0x88, 0xbe, 0xe5, 0x61, 0x8c, 0xbd, 0x03, 0x46, 0x61, 0xbd,
  0x8e, 0x71, 0xea, 0x3d, 0xdc, 0x43, 0xc2, 0x3c, 0x98, 0xd1, 0x11, 0x3d,
  0x78, 0x9b, 0x68, 0x3d, 0x47, 0xad, 0xb1, 0x3d, 0xea, 0x0c, 0x12, 0xbf,
  0xe5, 0xe9, 0x32, 0xbd, 0x64, 0x0a, 0x24, 0xbe, 0x5b, 0x3b, 0xbd, 0xbe,
  0x2d, 0x09, 0xc5, 0x3d, 0x38, 0x57, 0x59, 0xbe, 0xea, 0x94, 0x87, 0xbd,
  0x0a, 0x26, 0x1b, 0x3e, 0x8a, 0x26, 0x92, 0xbd, 0x04, 0xc1, 0x4c, 0x3d,
  0x7f, 0xf5, 0x92, 0x3d, 0x41, 0x1d, 0x77, 0x3d, 0x94, 0x99, 0xeb, 0x3c,
  0x07, 0x26, 0x1f, 0xbc, 0x82, 0xcb, 0xe2, 0x3c, 0xee, 0xd0, 0x8a, 0x3b,
  0x25, 0x4f, 0xcd, 0xbe, 0x3b, 0x87, 0xb2, 0xbd, 0x51, 0x69, 0x65, 0x3d,
  0x58, 0x93, 0x03, 0xbf, 0x64, 0x8c, 0x75, 0x3d, 0x47, 0xcb, 0xe0, 0xbc,
  0x32, 0x39, 0x38, 0xbe, 0x9c, 0xc4, 0x26, 0xbe, 0x56, 0xb2, 0x8d, 0xbe,
  0x49, 0xa0, 0x92, 0xbe, 0x07, 0x0d, 0x03, 0xbc, 0x7b, 0x89, 0x13, 0xbd,
  0xf6, 0xe5, 0x0e, 0x3d, 0xd8, 0xa0, 0xbd, 0xbc, 0xad, 0xd8, 0x24, 0xbd,
  0x8a, 0xd1, 0x9c, 0x3c, 0x90, 0xdd, 0x26, 0xbe, 0x14, 0x84, 0x3a, 0xbc,
  0x33, 0x57, 0x88, 0x3e, 0xfa, 0x79, 0xad, 0xbd, 0x05, 0x21, 0xae, 0x3c,
  0x84, 0x3b, 0x88, 0x3e, 0x10, 0x1b, 0xf2, 0xbe, 0xe5, 0xe3, 0x0d, 0x3e,
  0xca, 0xa5, 0xd1, 0x3e, 0xa5, 0x0d, 0xd6, 0xbd, 0x2a, 0x5f, 0x25, 0xbe,
  0x2f, 0xe0, 0x53, 0x3d, 0x90, 0x8d, 0x9d, 0x3d, 0xfe, 0xd0, 0x08, 0xbe,
  0x2a, 0xa0, 0x91, 0xbc, 0x22, 0xde, 0x18, 0x3d, 0xb9, 0x19, 0x3c, 0xbc,
  0xc0, 0x07, 0xfd, 0x3e, 0x29, 0xfe, 0x7f, 0xbd, 0x2f, 0x14, 0x6b, 0x3d,
  0x60, 0x19, 0x0e, 0x3b, 0x34, 0x2e, 0xc5, 0xbe, 0x0c, 0x6c, 0xa0, 0xbe,
  0x3b, 0xdf, 0x9e, 0xbd, 0x33, 0x55, 0x28, 0x3e, 0x02, 0x39, 0xc6, 0xbe,
  0xb5, 0xe3, 0xab, 0xbe, 0x72, 0xb8, 0x2e, 0x3e, 0x63, 0xf8, 0x8d, 0xbc,
  0xa8, 0x40, 0x56, 0xbe, 0x3b, 0x58, 0x2c, 0x3d, 0xe8, 0x27, 0x9a, 0x3b,
  0x54, 0x92, 0x43, 0x3e, 0x34, 0x43, 0x3e, 0x3d, 0x38, 0xc0, 0x25, 0xbd,
  0xb3, 0xdf, 0x91, 0x3d, 0xd7, 0x93, 0x82, 0x3c, 0x1f, 0x3d, 0x80, 0xbe,
  0x70, 0xe8, 0xe6, 0xbd, 0x3f, 0x85, 0x82, 0xbb, 0x32, 0x06, 0x34, 0x3e,
  0xea, 0x5b, 0x33, 0xbe, 0xd3, 0xaf, 0xb1, 0x3c, 0x4f, 0x7e, 0x9d, 0x3c,
  0xc0, 0xa9, 0x6f, 0xbd, 0x33, 0x07, 0x09, 0xbd, 0x1b, 0xfd, 0xe9, 0xbc,
  0xe0, 0x0b, 0xb0, 0xbc, 0x47, 0x8f, 0x12, 0x3d, 0x65, 0x11, 0x47, 0x3d,
  0xcd, 0xab, 0x9e, 0x3d, 0x08, 0x6b, 0x5c, 0xbc, 0xbf, 0xd5, 0x1b, 0x3d,
  0x4b, 0xe5, 0x84, 0xbe, 0xdd, 0x8f, 0x2c, 0xbe, 0xbc, 0xd3, 0x43, 0xbe,
  0xd8, 0xae, 0xf4, 0x3d, 0x7e, 0x28, 0x06, 0xbe, 0x44, 0x65, 0x9a, 0xbe,
  0xee, 0xea, 0x9c, 0x3d, 0x7e, 0x2c, 0x8c, 0x3d, 0x4b, 0x72, 0xbb, 0xbd,
  0xe8, 0x87, 0xf5, 0xbb, 0xff, 0x91, 0x85, 0x3c, 0x72, 0x40, 0x4f, 0x3e,
  0xb2, 0x39, 0x3c, 0xbd, 0xca, 0x8b, 0x00, 0x3e, 0xab, 0x57, 0x3d, 0xbe,
  0xb4, 0xa8, 0x06, 0x3d, 0xb3, 0xf6, 0x56, 0xbe, 0x98, 0x08, 0x30, 0xbe,
  0x33, 0xdd, 0x7f, 0xbc, 0xc2, 0x4e, 0x00, 0x3e, 0x06, 0xa5, 0x26, 0xbe,
  0x3d, 0x4e, 0xd5, 0xbd, 0xa3, 0xf7, 0x07, 0x3e, 0xaa, 0xdc, 0x29, 0x3d,
  0x9f, 0x6f, 0x83, 0xbd, 0x6b, 0xc2, 0x2a, 0xbc, 0xeb, 0x6c, 0xbc, 0xbc,
  0xb2, 0x26, 0xd7, 0xbc, 0x7d, 0xcd, 0x86, 0xbd, 0xbc, 0x19, 0xba, 0x3d,
  0x95, 0x71, 0x56, 0xbe, 0xce, 0x6c, 0x82, 0x3c, 0xec, 0x05, 0xd2, 0xbe,
  0xcf, 0x44, 0x93, 0xbe, 0xf5, 0x5b, 0x19, 0xbe, 0x85, 0xc5, 0x18, 0x3e,
  0x95, 0x18, 0x00, 0xbe, 0x6e, 0xac, 0x05, 0xbe, 0x86, 0x2d, 0x48, 0x3e,
  0x08, 0x3e, 0x88, 0x3d, 0xe8, 0xe1, 0xd2, 0xbd, 0xae, 0x49, 0xf8, 0xbb,
  0x19, 0xcb, 0xb0, 0x3c, 0x04, 0xa8, 0xe0, 0x3c, 0x40, 0x4b, 0x0f, 0x3d,
  0xce, 0x0a, 0xef, 0x3d, 0x64, 0x8b, 0x1b, 0xbe, 0x41, 0x2c, 0x05, 0x3d,
  0xd3, 0xd3, 0x5d, 0xbe, 0x53, 0xe0, 0x8e, 0xbc, 0xd5, 0xab, 0x67, 0x3e,
  0xa6, 0x1c, 0xab, 0x3d, 0xd7, 0x69, 0x81, 0xbe, 0xa5, 0x52, 0x15, 0x3c,
  0xbc, 0xcb, 0x8f, 0x3e, 0xc2, 0xfb, 0x92, 0x3d, 0x94, 0xca, 0x23, 0x3d,
  0x31, 0x99, 0xfb, 0x3d, 0x6c, 0x8f, 0x54, 0x3d, 0xc4, 0xd3, 0x20, 0x3d,
  0x15, 0x7d, 0x89, 0x3d, 0xf1, 0xd2, 0xb0, 0xbe, 0xc7, 0x39, 0xb2, 0xbe,
  0xd2, 0x81, 0xd7, 0xbd, 0x64, 0xbd, 0xd3, 0xbe, 0x0a, 0x44, 0xc2, 0xbe,
  0xd3, 0x88, 0x0c, 0xbe, 0x04, 0xe4, 0xed, 0xbd, 0x20, 0xcc, 0x15, 0xbf,
  0x6a, 0xb8, 0x8d, 0xbe, 0xc1, 0x2d, 0x22, 0xbe, 0x3d, 0xfd, 0xe9, 0xbb,
  0x38, 0x8e, 0x14, 0xbe, 0x81, 0xc7, 0xfd, 0xbd, 0xd6, 0x01, 0x9a, 0xbe,
  0x81, 0xf6, 0x74, 0xbe, 0xc5, 0x77, 0x23, 0xbe, 0xab, 0xf9, 0xb0, 0xbe,
  0x56, 0x37, 0x01, 0xbf, 0x23, 0x8a, 0xa8, 0xbd, 0x86, 0xe8, 0xf0, 0xbe,
  0x52, 0xa6, 0x1e, 0xbe, 0x1e, 0xc5, 0x1a, 0xbe, 0xb8, 0xbc, 0x08, 0x3b,
  0x4b, 0x59, 0xd8, 0xbe, 0x85, 0x52, 0x7c, 0xbe, 0x31, 0xf0, 0x31, 0xbe,
  0x34, 0xe8, 0x21, 0xbe, 0xcd, 0xe0, 0xa9, 0xbe, 0xe9, 0x4c, 0x9d, 0x3e,
  0xe7, 0x65, 0x0a, 0xbf, 0x50, 0xfa, 0xfb, 0x3c, 0x83, 0xd5, 0xb3, 0xbe,
  0xf9, 0x40, 0xb9, 0xbe, 0x43, 0x24, 0xb2, 0xbe, 0x37, 0x83, 0x1c, 0xbe,
  0xdf, 0x0c, 0xee, 0xbe, 0x89, 0xd2, 0xf1, 0xbd, 0xab, 0xbc, 0x69, 0xbd,
  0xc2, 0x25, 0x65, 0xbb, 0x43, 0x65, 0x95, 0xbe, 0x6e, 0xcc, 0xab, 0xbe,
  0x1e, 0x72, 0xcc, 0xbd, 0x04, 0xbe, 0x90, 0xbb, 0x2e, 0x41, 0x58, 0xbe,
  0x0c, 0x3f, 0x81, 0x3e, 0x43, 0x35, 0xcf, 0xbe, 0xf7, 0x89, 0x1f, 0x3d,
  0xa6, 0x45, 0xc3, 0xbe, 0xe5, 0x8a, 0xe1, 0xbe, 0xec, 0xa3, 0x4c, 0xbe,
  0x76, 0x76, 0x3d, 0xbe, 0x77, 0x5f, 0xe5, 0xbe, 0x59, 0xb3, 0x03, 0xbe,
  0xb2, 0x31, 0x09, 0xbe, 0x99, 0x2d, 0xa6, 0xbe, 0x21, 0x3c, 0x84, 0xbe,
  0x4b, 0xd6, 0x00, 0xbf, 0x81, 0xec, 0x79, 0xbd, 0x83, 0x85, 0xae, 0xbd,
  0x47, 0x6a, 0x00, 0xbe, 0x75, 0xab, 0x08, 0x3e, 0xa3, 0x83, 0xa3, 0xbe,
  0x4f, 0x29, 0x93, 0x3c, 0xa8, 0x66, 0xf8, 0xbe, 0xe2, 0x8b, 0x5e, 0x3e,
  0xed, 0x7a, 0xd5, 0x3d, 0x21, 0x15, 0xf6, 0xbd, 0x89, 0x5e, 0x93, 0xbe,
  0x1c, 0x73, 0x28, 0x3e, 0xba, 0xa7, 0x8c, 0xbe, 0xc2, 0x7e, 0x4f, 0xbe,
  0xb3, 0x5e, 0xdf, 0xbc, 0x59, 0x61, 0xab, 0xbe, 0x82, 0xbd, 0x0f, 0xbe,
  0x01, 0x06, 0x8c, 0xbe, 0x5a, 0xf8, 0x42, 0xbd, 0x0f, 0x85, 0x20, 0x3e,
  0x4c, 0x02, 0x7c, 0xbe, 0x5b, 0x74, 0x83, 0x3c, 0x8e, 0xec, 0x2f, 0xbd,
  0xf6, 0xec, 0x98, 0x3e, 0x46, 0x3e, 0x3b, 0x3e, 0x2d, 0xd1, 0x06, 0xbe,
  0xf6, 0x98, 0x48, 0x3e, 0xdc, 0xf6, 0xb0, 0xbd, 0xcb, 0x9c, 0x25, 0xbe,
  0xdf, 0xc7, 0x39, 0x3e, 0x67, 0xe6, 0xd1, 0xbd, 0x08, 0xd8, 0x9b, 0xbd,
  0xc5, 0xf5, 0x25, 0xbc, 0xb1, 0x76, 0x01, 0x3d, 0xfb, 0xc8, 0xee, 0xbd,
  0x80, 0xa8, 0x28, 0xbe, 0x6d, 0x5d, 0x48, 0xbe, 0x9c, 0xc2, 0x83, 0xbc,
  0xa4, 0xe4, 0x86, 0x3e, 0x9f, 0x4f, 0xdd, 0x3e, 0x54, 0x3f, 0x25, 0x3f,
  0xe4, 0x32, 0x48, 0x3d, 0x42, 0xc8, 0x72, 0xbd, 0xa3, 0xf1, 0x97, 0x3d,
  0x78, 0x60, 0xa2, 0xbd, 0x6c, 0x3b, 0xc8, 0x3d, 0x0c, 0x9d, 0xc4, 0x3d,
  0xf4, 0x06, 0xae, 0x3d, 0x27, 0x8f, 0x67, 0x3e, 0x98, 0xf5, 0xa8, 0x3e,
  0x8c, 0x22, 0x7e, 0x3a, 0x4a, 0x18, 0x1a, 0xbe, 0x46, 0x07, 0xcc, 0x3c,
  0xc0, 0xe1, 0xcc, 0x3d, 0xdd, 0xa0, 0xcf, 0x3e, 0x31, 0x67, 0x49, 0xbd,
  0x78, 0x5b, 0x37, 0xbe, 0xaa, 0xcf, 0x3c, 0xbe, 0xca, 0x3f, 0xf9, 0xbe,
  0x11, 0xf4, 0xff, 0xbb, 0x7a, 0xd8, 0x2d, 0xbe, 0xf9, 0x43, 0x81, 0xbd,
  0x8a, 0xe3, 0x91, 0xbe, 0x37, 0x35, 0xb9, 0xbe, 0xae, 0xdc, 0xaf, 0xbe,
  0xc4, 0x09, 0x8b, 0xbe, 0xca, 0xc6, 0x3b, 0xbe, 0x19, 0xda, 0x9c, 0xbd,
  0x78, 0x8c, 0x31, 0xbe, 0x0f, 0xfe, 0xc2, 0xbd, 0xa9, 0x82, 0x4c, 0xbe,
  0x2f, 0xec, 0x65, 0xbc, 0xf6, 0x6c, 0xa0, 0xbd, 0xa6, 0x82, 0x9b, 0xbe,
  0xd7, 0x1a, 0x29, 0xbd, 0x47, 0x92, 0xab, 0x3d, 0xd6, 0x61, 0x56, 0x3d,
  0xbd, 0xa4, 0x11, 0xbe, 0xa7, 0x1b, 0x49, 0xbe, 0x18, 0xd9, 0xe4, 0xbe,
  0xd0, 0x39, 0x85, 0xbd, 0xe0, 0x7a, 0xb2, 0xbe, 0x2b, 0xbf, 0xaf, 0xbe,
  0x0d, 0x9d, 0x6d, 0x3e, 0x4d, 0x6d, 0xe5, 0xbe, 0x0a, 0x5f, 0xcf, 0x3d,
  0x80, 0x81, 0x9c, 0xbe, 0x5b, 0xdf, 0x98, 0xbe, 0x74, 0xd1, 0xe3, 0xb9,
  0xc4, 0xab, 0x63, 0xbe, 0xc0, 0xdb, 0xd7, 0xbd, 0xcd, 0x9b, 0x81, 0x3d,
  0xc9, 0xd7, 0xd3, 0xbd, 0x31, 0x57, 0x1f, 0x3d, 0xd9, 0xa9, 0x9d, 0xbe,
  0x61, 0x07, 0xae, 0xbe, 0x8d, 0x6c, 0x96, 0xbd, 0xd6, 0x63, 0x52, 0xbe,
  0x39, 0xdd, 0xf1, 0xbd, 0xd0, 0x3f, 0x8a, 0x3e, 0x54, 0xf3, 0x36, 0xbe,
  0x9e, 0x1e, 0x02, 0x3e, 0x60, 0x27, 0xee, 0x3d, 0xab, 0x85, 0x36, 0xbc,
  0xe9, 0xa0, 0xe5, 0x3b, 0x0b, 0xdc, 0x7e, 0xbe, 0xf9, 0xda, 0x80, 0x3b,
  0x22, 0x88, 0xb6, 0xbc, 0xed, 0xbc, 0xd2, 0x3c, 0xf5, 0x02, 0x4a, 0xbe,
  0x05, 0x10, 0xf2, 0xbc, 0x90, 0xeb, 0xf4, 0xbd, 0x99, 0xc8, 0x16, 0xbd,
  0x17, 0x47, 0xda, 0xbe, 0x2c, 0x28, 0x8c, 0x3d, 0x44, 0x67, 0xc8, 0x3d,
  0x44, 0x22, 0xa3, 0xbe, 0x34, 0x06, 0xa7, 0x3c, 0x0b, 0x8a, 0xa1, 0xbe,
  0x37, 0x0f, 0x0f, 0x3e, 0x26, 0xb4, 0x0b, 0x3e, 0x67, 0x5e, 0x48, 0xbe,
  0x3e, 0xcc, 0x41, 0xbe, 0x3e, 0xbf, 0xfa, 0x3d, 0x5a, 0x2c, 0x17, 0xbe,
  0xa7, 0x44, 0x5f, 0xbd, 0xbc, 0x6c, 0xe5, 0x3d, 0x70, 0x1c, 0x52, 0xbe,
  0x1d, 0x4f, 0x0b, 0xbe, 0x43, 0x6b, 0x07, 0xbd, 0xd1, 0xbc, 0xe6, 0x3c,
  0x30, 0x68, 0x9a, 0x3d, 0x28, 0xec, 0x53, 0xbe, 0xe5, 0xf8, 0x9d, 0x3c,
  0x18, 0xa2, 0xe3, 0x3c, 0xb0, 0x24, 0xf2, 0x3e, 0x8d, 0x97, 0x0b, 0x3e,
  0xa1, 0x05, 0xb9, 0xbc, 0x34, 0x25, 0x03, 0x3e, 0xc3, 0xde, 0x05, 0x3e,
  0xf0, 0x7c, 0x17, 0x3e, 0x8e, 0x5a, 0xf4, 0xbb, 0x43, 0x17, 0x8e, 0xbc,
  0x6f, 0x43, 0xcc, 0xbc, 0xa3, 0x6f, 0x49, 0xbd, 0x1d, 0xa7, 0xa7, 0x3d,
  0x7d, 0xfe, 0x3a, 0xbe, 0x14, 0xd3, 0x17, 0xbe, 0xd0, 0xaf, 0x1c, 0xbe,
  0x7a, 0xde, 0xac, 0x3c, 0xdc, 0x2e, 0xc1, 0x3d, 0x04, 0x37, 0xe1, 0x3e,
  0xa0, 0xb4, 0xec, 0x3e, 0xe1, 0xd8, 0x92, 0x3d, 0x3e, 0x5c, 0xa1, 0xbc,
  0xca, 0x53, 0xac, 0x3d, 0x26, 0x37, 0xd7, 0xbd, 0x75, 0x29, 0xce, 0x3d,
  0x20, 0xa1, 0xab, 0x3d, 0xfc, 0x27, 0xe7, 0x3d, 0x8a, 0xab, 0x92, 0x3d,
  0x87, 0x8f, 0xb8, 0x3e, 0xe6, 0x03, 0x4a, 0x3c, 0x38, 0x51, 0xc9, 0xbd,
  0xc1, 0x78, 0x8a, 0x3d, 0xf0, 0x5e, 0x46, 0xbd, 0x75, 0x8c, 0x22, 0x3e,
  0x65, 0x44, 0x10, 0x3f, 0x2f, 0xd4, 0x15, 0xbe, 0x0d, 0xc7, 0x2e, 0x3c,
  0xc2, 0x7e, 0xce, 0x3e, 0x6c, 0xb5, 0xd0, 0xbe, 0xa7, 0x42, 0xf8, 0xbd,
  0xb5, 0x1e, 0xaf, 0x3e, 0x59, 0x0a, 0x14, 0xbe, 0xbe, 0x1f, 0x9a, 0x3d,
  0x13, 0xca, 0x3b, 0x3e, 0x36, 0x55, 0xa7, 0x3d, 0x22, 0xbe, 0xcd, 0xbe,
  0x1c, 0x14, 0x82, 0xbe, 0x39, 0x79, 0x12, 0xbd, 0x62, 0x16, 0xe7, 0xbc,
  0x8f, 0x80, 0x47, 0x3f, 0x48, 0x5e, 0xa7, 0xbd, 0x2f, 0xcd, 0x4f, 0xbe,
  0x5b, 0x01, 0xc8, 0xbc, 0x2c, 0x56, 0xb5, 0xbe, 0x5e, 0x04, 0xc7, 0xbe,
  0x04, 0x8f, 0x4b, 0xbe, 0x9f, 0xd6, 0x38, 0x3e, 0xc7, 0x94, 0x98, 0xbe,
  0x2e, 0x7c, 0x22, 0xbe, 0xdd, 0x9c, 0x9d, 0x3e, 0x92, 0x0f, 0x85, 0x3d,
  0x5d, 0xbe, 0xc1, 0xbe, 0x90, 0xe0, 0x86, 0xbd, 0x8d, 0xfc, 0x40, 0xbc,
  0x87, 0x83, 0x14, 0x3e, 0x49, 0x76, 0xac, 0x3d, 0x03, 0xc6, 0xb8, 0x3b,
  0x8d, 0x2c, 0xa6, 0xbe, 0x69, 0x07, 0xb6, 0x3c, 0x7a, 0xef, 0x4f, 0xbe,
  0x50, 0x8e, 0x31, 0xbe, 0x32, 0xd0, 0x6d, 0xbe, 0x77, 0xb4, 0x24, 0x3e,
  0x8a, 0x81, 0xf5, 0x3a, 0x5d, 0x1b, 0x77, 0x3c, 0xa2, 0x0f, 0x66, 0x3d,
  0x11, 0x3b, 0x59, 0x3c, 0x7f, 0xe5, 0x8a, 0xbe, 0x84, 0xcb, 0xf7, 0x3d,
  0xbb, 0x91, 0xa6, 0xbb, 0x97, 0x3d, 0x45, 0x3d, 0xea, 0x7a, 0x89, 0xbb,
  0x2d, 0x17, 0x11, 0xbc, 0x25, 0x20, 0x27, 0xbd, 0xd4, 0x2f, 0x25, 0xb9,
  0x0a, 0x45, 0x80, 0xbe, 0x2d, 0xb5, 0x9b, 0xbd, 0x25, 0xdc, 0x1f, 0xbe,
  0x17, 0x5e, 0x5f, 0x3e, 0x36, 0x9b, 0x0b, 0xbd, 0x04, 0xef, 0x1e, 0xbd,
  0x54, 0xae, 0xbf, 0x3c, 0x86, 0xb4, 0xf7, 0x3b, 0xbf, 0x83, 0x3f, 0xbe,
  0x72, 0x59, 0xa6, 0x3d, 0x2f, 0xe2, 0xaf, 0xbb, 0x5f, 0xf2, 0xa8, 0x3d,
  0x3c, 0x88, 0x13, 0x3c, 0x6b, 0x69, 0xb9, 0x3d, 0xe8, 0x94, 0x5c, 0xbe,
  0xa8, 0xb9, 0x0e, 0xbb, 0xab, 0x48, 0x8a, 0xbe, 0x2f, 0xbc, 0xf6, 0xbd,
  0xfc, 0xb3, 0x1a, 0xbe, 0x06, 0xcf, 0x05, 0x3e, 0x4c, 0xe9, 0x0f, 0x3d,
  0xd3, 0x6e, 0x43, 0xbc, 0xfe, 0xc7, 0xc2, 0x3a, 0x83, 0x30, 0xe8, 0x3d,
  0x79, 0xc4, 0x1e, 0xbe, 0xd8, 0x7d, 0x85, 0x3e, 0xe6, 0xc2, 0x2d, 0x3d,
  0x69, 0x46, 0x0d, 0x3e, 0xd5, 0xb6, 0x02, 0x3e, 0x37, 0x96, 0x43, 0xbd,
  0x86, 0x7e, 0xe7, 0xbe, 0x48, 0x6f, 0xf7, 0x3c, 0x95, 0xbd, 0xa9, 0xbe,
  0xa9, 0xda, 0x91, 0xbe, 0x94, 0x79, 0x4a, 0xbd, 0x61, 0x9a, 0x78, 0x3d,
  0x2e, 0x87, 0x8f, 0xbd, 0x73, 0x02, 0x3b, 0xbd, 0x56, 0x21, 0x5b, 0x3d,
  0x3e, 0xab, 0x66, 0x3d, 0xdb, 0xf6, 0xa2, 0xbe, 0xa1, 0x5f, 0xc1, 0x3e,
  0xf8, 0x7a, 0x93, 0x35, 0xd2, 0xff, 0x65, 0x3e, 0xef, 0xe3, 0x9f, 0xbc,
  0x1c, 0x9e, 0xe1, 0x3d, 0xae, 0xfc, 0x99, 0xbe, 0x2b, 0xfc, 0xb0, 0x3c,
  0x6c, 0x4d, 0x14, 0xbd, 0x08, 0xd7, 0x12, 0x3d, 0xb0, 0x87, 0xe6, 0x3d,
  0x6e, 0xeb, 0x30, 0x3e, 0xf9, 0x5c, 0x02, 0xbe, 0x23, 0xc8, 0x19, 0x3c,
  0x3d, 0xa7, 0xb2, 0x3e, 0x9a, 0x76, 0x3b, 0x3e, 0x5f, 0x60, 0x84, 0x3d,
  0xea, 0x6c, 0xd1, 0x3d, 0x33, 0x34, 0xd3, 0x3d, 0x9e, 0x37, 0x25, 0x3d,
  0x06, 0xb1, 0x80, 0xbc, 0xf3, 0xa3, 0x94, 0xbe, 0x6a, 0x80, 0x29, 0xbe,
  0xaf, 0xcb, 0xc1, 0xbe, 0xd4, 0x40, 0xd5, 0xbe, 0x72, 0xd8, 0xf3, 0xbd,
  0xf7, 0xb2, 0x67, 0xbd, 0xad, 0xcf, 0x80, 0xbe, 0xc1, 0x8b, 0x3f, 0xbe,
  0x69, 0x18, 0x7a, 0xbe, 0x0f, 0x86, 0xac, 0xbe, 0x2e, 0xd4, 0x57, 0xbe,
  0x50, 0x89, 0x33, 0xbe, 0xd2, 0x5c, 0x64, 0x3d, 0x0d, 0x15, 0x80, 0xbe,
  0x91, 0x81, 0xf8, 0xbd, 0x57, 0x08, 0x4a, 0xbe, 0x87, 0xa9, 0xc5, 0xbd,
  0xe1, 0x45, 0x10, 0x3e, 0xe6, 0x8b, 0xe5, 0xbe, 0x16, 0x99, 0xd3, 0xbe,
  0x1e, 0x13, 0x3d, 0xbe, 0xeb, 0xd9, 0x35, 0x3e, 0x2b, 0xb1, 0xda, 0xbe,
  0xd7, 0x6f, 0xc9, 0xbe, 0x8c, 0x7c, 0xcb, 0xbe, 0xab, 0x8d, 0x1c, 0xbc,
  0xa9, 0x79, 0x27, 0xbe, 0xe6, 0x87, 0xf7, 0xbd, 0x0b, 0x4b, 0xbf, 0x3d,
  0xfb, 0x5d, 0x8b, 0xbe, 0x9c, 0xd9, 0xd1, 0x3d, 0xcb, 0x2a, 0x91, 0xbe,
  0x21, 0x7b, 0x98, 0xbe, 0xb6, 0x6e, 0x26, 0x3e, 0xd8, 0xe0, 0x14, 0xbf,
  0x3d, 0x65, 0x95, 0xbe, 0xf3, 0x0a, 0x78, 0x3d, 0xf3, 0xdc, 0x90, 0xbd,
  0x4c, 0x79, 0x04, 0xbe, 0xae, 0xd7, 0xa5, 0xbe, 0x44, 0x9c, 0x99, 0xbe,
  0x50, 0x4e, 0x13, 0xbd, 0xd3, 0x0b, 0x87, 0xbd, 0x7e, 0xd4, 0x97, 0xbe,
  0x2f, 0x8a, 0xa4, 0x3d, 0xa5, 0x57, 0xb8, 0xbe, 0xfc, 0xee, 0x48, 0xbc,
  0xac, 0xa9, 0xc1, 0xbe, 0x31, 0xc6, 0x90, 0xbe, 0xca, 0x3a, 0x76, 0x3e,
  0x20, 0xef, 0xb1, 0xbe, 0x10, 0xa8, 0x23, 0xbe, 0x83, 0x05, 0x07, 0x3e,
  0xdd, 0x43, 0x26, 0xbe, 0xc2, 0xa6, 0x2d, 0xbc, 0xce, 0x86, 0x8f, 0xbd,
  0x54, 0x5c, 0x72, 0xbe, 0xa1, 0xdf, 0x27, 0xbe, 0xc4, 0x18, 0x80, 0xbe,
  0x07, 0x28, 0x12, 0x3e, 0x50, 0x01, 0x57, 0xbd, 0x98, 0x15, 0xc2, 0xbe,
  0x61, 0xac, 0x59, 0xbd, 0x6f, 0x3d, 0xc1, 0xbe, 0x9e, 0x20, 0xb4, 0x3d,
  0xab, 0x89, 0xc3, 0x3d, 0x56, 0x46, 0x26, 0xbe, 0x65, 0x44, 0x12, 0xbd,
  0x45, 0x02, 0x54, 0x3e, 0x1b, 0x59, 0x0b, 0xbe, 0xc7, 0xb6, 0x3c, 0x3b,
  0xc5, 0x09, 0xe6, 0xbc, 0x77, 0x1e, 0xd1, 0xbc, 0xd6, 0x27, 0x30, 0x3d,
  0x70, 0x5b, 0x5c, 0xbe, 0xae, 0x3c, 0x3c, 0xbe, 0xcf, 0xa5, 0x8f, 0x3d,
  0xfa, 0x67, 0x02, 0xbe, 0x5a, 0xe4, 0x94, 0x3d, 0x70, 0xcb, 0x25, 0xbe,
  0x7b, 0x34, 0xad, 0x3d, 0x1f, 0x4e, 0x5a, 0x3e, 0xbd, 0xd6, 0x83, 0x3d,
  0x04, 0x50, 0xd2, 0x3d, 0xcb, 0xa6, 0x46, 0x3e, 0xce, 0x73, 0x1b, 0x3d,
  0x85, 0x35, 0xc0, 0x3d, 0xb6, 0x4e, 0xba, 0x3d, 0x02, 0xa6, 0x81, 0x3c,
  0x22, 0x12, 0xdc, 0xbd, 0x2e, 0x6f, 0x62, 0x3e, 0x9c, 0x7b, 0x56, 0xbe,
  0xdf, 0x70, 0x02, 0x3e, 0x1e, 0x43, 0xf7, 0xbd, 0x64, 0x8e, 0xb6, 0xbd,
  0xc0, 0x96, 0x90, 0x3e, 0xb4, 0x28, 0xad, 0x3e, 0x17, 0x44, 0x91, 0x3b,
  0xad, 0xec, 0x70, 0x3d, 0x75, 0x9c, 0x0a, 0x3e, 0x56, 0x94, 0xc3, 0x3d,
  0xb7, 0x9c, 0x61, 0xbe, 0x9e, 0xee, 0xbe, 0xbd, 0x87, 0xf8, 0x0c, 0xbe,
  0x5c, 0xdd, 0x15, 0xbe, 0xd8, 0xa2, 0x84, 0xbd, 0x2f, 0xef, 0xce, 0x3e,
  0x82, 0x52, 0x93, 0x3c, 0x7f, 0x60, 0x33, 0xbe, 0x1e, 0xcb, 0xc4, 0xbc,
  0xbb, 0xfb, 0x37, 0xbe, 0xdc, 0xb4, 0x6c, 0x3e, 0x63, 0x41, 0x2b, 0xbc,
  0x1d, 0x0c, 0x2d, 0xbe, 0x86, 0x61, 0x59, 0xbe, 0x1d, 0x8c, 0xa4, 0xbe,
  0xbd, 0xb2, 0xae, 0x3d, 0x6d, 0xee, 0x53, 0x3d, 0x58, 0x8a, 0x37, 0xbe,
  0xbb, 0x3b, 0x0c, 0x3e, 0x7c, 0x55, 0x54, 0xbe, 0xd9, 0x8f, 0x28, 0xbd,
  0x1d, 0x6c, 0x07, 0xbd, 0xdc, 0x87, 0x81, 0xbe, 0x18, 0x68, 0x58, 0x3e,
  0xf3, 0x0d, 0x83, 0xbd, 0xb2, 0x2f, 0x0a, 0xbe, 0x29, 0xdc, 0x0a, 0xbe,
  0xa3, 0x17, 0xf5, 0x3d, 0x19, 0xb5, 0x32, 0xbd, 0xb5, 0xc9, 0xd2, 0xbe,
  0xe6, 0xd1, 0x17, 0xbe, 0x03, 0x7b, 0x8f, 0xbd, 0xcc, 0xfb, 0x5a, 0xbb,
  0xc4, 0xdf, 0xe4, 0xbc, 0x86, 0x30, 0x1a, 0xbe, 0x58, 0x32, 0x93, 0xbd,
  0xaa, 0xc2, 0x43, 0xbe, 0xb7, 0x6e, 0x3f, 0xbe, 0x2d, 0x98, 0x9f, 0x3a,
  0x81, 0x6a, 0x3c, 0xbe, 0x06, 0x02, 0x76, 0xbe, 0x34, 0xbf, 0xf2, 0x3d,
  0xe7, 0x20, 0x10, 0xbe, 0x22, 0x22, 0x4e, 0x3c, 0xd0, 0xea, 0x41, 0xbe,
  0xf9, 0x1c, 0xce, 0xbe, 0x96, 0x25, 0xae, 0x3b, 0x73, 0x48, 0x89, 0x3d,
  0x14, 0x29, 0x00, 0xbe, 0xe8, 0x66, 0x52, 0xbe, 0x0f, 0x8e, 0x2f, 0xbe,
  0xbd, 0x32, 0x52, 0xbe, 0x95, 0x59, 0x37, 0x3d, 0x89, 0x5f, 0x12, 0xbb,
  0x71, 0xba, 0x44, 0x3d, 0x01, 0x0c, 0xf8, 0xbd, 0x78, 0x1e, 0x86, 0xbe,
  0x6d, 0xac, 0xeb, 0xbd, 0xf7, 0x67, 0xd4, 0x3c, 0x89, 0xfb, 0x28, 0xbd,
  0xdd, 0x95, 0x09, 0xbb, 0x60, 0x98, 0x9d, 0xbe, 0xb7, 0x4d, 0x91, 0xbd,
  0x80, 0xbf, 0x7b, 0x3d, 0x19, 0x91, 0x90, 0x3d, 0xaf, 0x8d, 0x75, 0xbe,
  0x41, 0xa4, 0xb8, 0xbd, 0xbe, 0x23, 0xbc, 0xbd, 0xd0, 0x5d, 0x37, 0x3e,
  0x2d, 0xb3, 0x76, 0x3d, 0xc5, 0xb6, 0x85, 0xbc, 0xa1, 0x3e, 0x8d, 0x3d,
  0xf0, 0xe3, 0x7f, 0xbe, 0xbd, 0x20, 0xf3, 0xbd, 0x0c, 0x62, 0x99, 0xbe,
  0x97, 0x6a, 0x32, 0xbe, 0x6b, 0xa9, 0x9e, 0x3d, 0xa9, 0xc7, 0x50, 0xbe,
  0xa2, 0x2b, 0xce, 0x3b, 0x58, 0x56, 0xc4, 0xbd, 0x5c, 0x42, 0x36, 0x3e,
  0x73, 0x59, 0x33, 0x3d, 0x13, 0xb5, 0x01, 0xbe, 0xde, 0xb1, 0x48, 0xbd,
  0x1e, 0xbf, 0xa4, 0x3c, 0xd2, 0xf6, 0x80, 0xbe, 0xa9, 0xe4, 0xd0, 0xbd,
  0x8e, 0x69, 0x4b, 0x3e, 0x18, 0x74, 0x12, 0x3c, 0x3f, 0xe5, 0x43, 0xbe,
  0x1c, 0x11, 0x27, 0xbe, 0x5c, 0xdb, 0xdb, 0x3d, 0xbd, 0xa8, 0x13, 0x3e,
  0x63, 0xf7, 0x57, 0xbd, 0x99, 0xe9, 0x6d, 0xbc, 0x10, 0x7e, 0x3f, 0x3e,
  0x2c, 0x16, 0xc1, 0x3d, 0x06, 0xa4, 0xd7, 0xbd, 0x39, 0xe2, 0x4d, 0xbd,
  0x6d, 0x35, 0xef, 0x3d, 0x97, 0xa5, 0x43, 0x3d, 0xd4, 0x3e, 0x88, 0x39,
  0x44, 0xa5, 0xdb, 0xbd, 0xff, 0xe4, 0x00, 0x3e, 0x47, 0x5b, 0x22, 0xbd,
  0x29, 0x50, 0x60, 0xbc, 0xba, 0x68, 0x97, 0x3d, 0xdf, 0x77, 0xd3, 0x3e,
  0xf6, 0x03, 0x80, 0x3e, 0xcc, 0x68, 0x84, 0x3d, 0x2f, 0xa8, 0xec, 0xbd,
  0x31, 0xb5, 0x11, 0x3e, 0x72, 0x43, 0x84, 0xbd, 0xbc, 0x8a, 0xc5, 0x3d,
  0x5d, 0x00, 0xc0, 0x3d, 0x4f, 0xe0, 0x7b, 0xbd, 0x40, 0x37, 0x8b, 0xbd,
  0x1b, 0xd0, 0xad, 0xbd, 0x47, 0xbd, 0xe3, 0xbd, 0xaf, 0x55, 0x35, 0xbe,
  0xfb, 0xd3, 0xd1, 0xbd, 0x13, 0xd4, 0x19, 0xbe, 0xf1, 0x36, 0xa7, 0x3d,
  0x94, 0x22, 0xcb, 0xbb, 0x75, 0x03, 0x41, 0x3c, 0x2c, 0x66, 0x5b, 0x3e,
  0xa6, 0xd6, 0xa7, 0x3e, 0x50, 0x8c, 0xc3, 0x3d, 0x78, 0xb0, 0x51, 0x3e,
  0x7e, 0xa8, 0x27, 0xbf, 0x01, 0xb9, 0xd3, 0x3d, 0x86, 0xe2, 0xa2, 0x3e,
  0x78, 0x07, 0x24, 0x3e, 0x74, 0xdd, 0x6d, 0x3e, 0xa2, 0xeb, 0xc4, 0x3e,
  0xc8, 0x35, 0x5f, 0x3e, 0x82, 0x25, 0xbf, 0x3e, 0xe3, 0x93, 0xe3, 0xbe,
  0x6d, 0xb1, 0xbe, 0xbe, 0x64, 0x2d, 0xc5, 0xbd, 0x44, 0x17, 0x51, 0xbd,
  0xbc, 0xed, 0xb2, 0x3d, 0xc1, 0xc9, 0x6b, 0x3e, 0x19, 0x7d, 0xdd, 0xbd,
  0x4c, 0xf3, 0x58, 0x3e, 0xed, 0x87, 0x36, 0xbe, 0x9e, 0xfe, 0x14, 0x3d,
  0x62, 0x88, 0x24, 0x3e, 0x90, 0xa4, 0x95, 0x3d, 0x25, 0x44, 0xea, 0x3d,
  0x10, 0x95, 0xbb, 0x3e, 0x53, 0x8e, 0x11, 0x3e, 0x8e, 0xa1, 0x19, 0x3e,
  0xc4, 0x50, 0xdb, 0xbe, 0xf8, 0x1d, 0x6e, 0xbe, 0xbd, 0x89, 0xee, 0xbc,
  0x13, 0x1d, 0x35, 0x3e, 0x30, 0xcc, 0xf7, 0xbd, 0xbe, 0x40, 0x7c, 0x3e,
  0xfa, 0xea, 0x05, 0x3d, 0xb3, 0xb1, 0x08, 0x3e, 0x62, 0x3a, 0xb2, 0x3d,
  0x19, 0x8b, 0xe8, 0x3d, 0x26, 0x82, 0x9b, 0x3e, 0x62, 0x82, 0x2d, 0xbe,
  0x3d, 0xea, 0x74, 0xbe, 0xba, 0xb7, 0x66, 0x3e, 0x3c, 0x1f, 0x22, 0x3e,
  0xde, 0xaa, 0xa8, 0xbd, 0x83, 0x08, 0xa6, 0xbd, 0x78, 0x3e, 0x45, 0x3b,
  0x5a, 0x98, 0xa0, 0xbe, 0xeb, 0xa9, 0x76, 0x3e, 0x0b, 0x29, 0x00, 0xbe,
  0x8c, 0xb4, 0xa7, 0x3e, 0xd1, 0xcf, 0x06, 0x3e, 0xc5, 0xa8, 0x29, 0xbc,
  0xc5, 0x9c, 0x63, 0x3d, 0x93, 0x52, 0x7d, 0x3d, 0x0d, 0x4b, 0x0b, 0x3e,
  0x56, 0xb2, 0x81, 0xbe, 0x55, 0xc8, 0x9d, 0xbe, 0xcb, 0x0a, 0xdc, 0x3d,
  0xdf, 0x94, 0x1c, 0x3e, 0x3c, 0x77, 0x3f, 0xbe, 0x30, 0x0e, 0x82, 0xbd,
  0x4c, 0xf1, 0x71, 0xbd, 0xe1, 0x58, 0xa2, 0xbd, 0x46, 0x6e, 0xa6, 0x3d,
  0x58, 0x38, 0xc6, 0xbd, 0xc8, 0x9b, 0x04, 0x3f, 0x1f, 0x69, 0x7c, 0x3d,
  0x85, 0xb3, 0xc0, 0xbd, 0xc5, 0x10, 0x17, 0xbe, 0x08, 0xbd, 0x8c, 0x3d,
  0x5a, 0x72, 0x2d, 0x3e, 0x78, 0x85, 0xfb, 0xbd, 0x17, 0xae, 0x78, 0xbe,
  0x6e, 0xdc, 0x83, 0x3e, 0x44, 0xd2, 0xd9, 0x3e, 0x3e, 0xae, 0x58, 0xbd,
  0xf5, 0x39, 0x0b, 0xbe, 0xa3, 0x9f, 0x77, 0xbe, 0x70, 0xb4, 0x6a, 0xbd,
  0xca, 0x5b, 0x6a, 0x3e, 0x2e, 0x41, 0x2b, 0xbe, 0x3a, 0xa2, 0xa4, 0x3e,
  0x33, 0x0d, 0x27, 0x3e, 0x95, 0x3a, 0x25, 0x3e, 0x1e, 0x8b, 0x98, 0xbe,
  0x71, 0x15, 0xc7, 0x3d, 0x6b, 0x88, 0x71, 0x3d, 0x7e, 0xa8, 0x38, 0xbe,
  0x8e, 0x5f, 0x13, 0xbe, 0x29, 0xe1, 0xbd, 0x3e, 0x79, 0xf6, 0xc3, 0x3e,
  0x09, 0x37, 0x30, 0xbd, 0xed, 0x63, 0xa7, 0xbd, 0x1d, 0x0c, 0x0a, 0xbe,
  0x96, 0xbe, 0x04, 0xbf, 0x27, 0x05, 0x79, 0x3d, 0x11, 0x23, 0x83, 0xbe,
  0x72, 0xe2, 0x70, 0xbd, 0x77, 0x1b, 0x76, 0x3d, 0x06, 0xd2, 0x6b, 0x3d,
  0x97, 0x53, 0xcf, 0xbe, 0xbc, 0xeb, 0xd5, 0x3d, 0x6b, 0x86, 0xcc, 0xbd,
  0x4e, 0xb4, 0xc5, 0x3d, 0x7d, 0x66, 0x52, 0xbe, 0xac, 0x22, 0x22, 0xbe,
  0x01, 0xfb, 0xdc, 0xbd, 0xbc, 0xed, 0x5c, 0xbd, 0x4d, 0x1c, 0x2b, 0xbe,
  0x99, 0x63, 0xec, 0xbe, 0xd2, 0x77, 0xa6, 0xbe, 0x1c, 0x1a, 0x22, 0x3e,
  0x8e, 0xd7, 0xbc, 0xbe, 0x25, 0x14, 0xd7, 0xbe, 0xf2, 0xef, 0x32, 0x3e,
  0xdc, 0x66, 0xa9, 0xbd, 0xaa, 0xab, 0x0a, 0xbc, 0x63, 0xed, 0xc5, 0x3c,
  0x82, 0x14, 0x47, 0xbe, 0x18, 0x9d, 0x38, 0xbf, 0x8c, 0x79, 0x38, 0xbf,
  0xeb, 0x71, 0xb1, 0xbe, 0x4b, 0x18, 0x9f, 0xbe, 0x96, 0xf1, 0xde, 0xbe,
  0x52, 0x06, 0x3a, 0x3c, 0x03, 0xcc, 0xac, 0xbe, 0xa2, 0x79, 0x3c, 0x3e,
  0x4d, 0xc1, 0xa1, 0x3e, 0xdd, 0xf9, 0x9e, 0xbd, 0xeb, 0x32, 0xec, 0xbd,
  0xc6, 0x8b, 0x4f, 0x3e, 0xc1, 0xe6, 0x42, 0x3e, 0x97, 0x1e, 0x13, 0xbc,
  0x23, 0x69, 0xed, 0x3d, 0x98, 0x24, 0x00, 0xbd, 0xab, 0x82, 0x06, 0xbe,
  0x57, 0x5b, 0x45, 0x3d, 0x0a, 0x50, 0x92, 0xbe, 0xbb, 0x65, 0xfd, 0xbd,
  0xab, 0x8a, 0xb7, 0xbe, 0xc1, 0xf9, 0x6a, 0xbd, 0x0d, 0x5f, 0xd6, 0x3d,
  0x41, 0x9a, 0x4f, 0x3e, 0x89, 0xa2, 0xcc, 0xbc, 0xe9, 0xd9, 0xc9, 0x3d,
  0xb5, 0x12, 0xb1, 0x3d, 0x00, 0x1e, 0xb0, 0x3e, 0x75, 0xeb, 0x14, 0x3e,
  0xca, 0x8a, 0x22, 0x3d, 0x28, 0x8c, 0x49, 0x3d, 0xdc, 0xaf, 0xb1, 0xbd,
  0xe8, 0x99, 0xb5, 0x3d, 0xbe, 0x4a, 0xa7, 0x3d, 0xaf, 0xf2, 0x4e, 0xbe,
  0x34, 0xda, 0xaa, 0xbd, 0x69, 0x40, 0xa3, 0xbb, 0xed, 0x01, 0x89, 0xbe,
  0xad, 0xd1, 0xbf, 0x3d, 0x1e, 0xc0, 0x40, 0x3d, 0x35, 0x4c, 0x1f, 0xbf,
  0xb3, 0xe5, 0xb0, 0x3d, 0x6c, 0x34, 0xc2, 0x3c, 0xc4, 0x2d, 0x19, 0x3b,
  0xa1, 0x30, 0x40, 0x3d, 0x81, 0x02, 0x10, 0xbe, 0xe4, 0xd5, 0x97, 0xbd,
  0xa3, 0x19, 0xa5, 0x3c, 0xc9, 0xca, 0x40, 0x3e, 0x44, 0xa5, 0x92, 0x3d,
  0x21, 0x90, 0x30, 0xbb, 0x7a, 0x22, 0xe6, 0xbd, 0xe6, 0x68, 0x2a, 0x3e,
  0x5f, 0x54, 0x54, 0xbf, 0x5b, 0xaf, 0x75, 0x3d, 0x8a, 0x4a, 0xac, 0x3d,
  0x2b, 0x45, 0x0d, 0xbf, 0xfe, 0xb3, 0x9f, 0xbc, 0x26, 0x54, 0x2a, 0xbe,
  0x4f, 0xbb, 0x44, 0xbe, 0x47, 0x30, 0x93, 0xbd, 0x90, 0x2b, 0x4a, 0xbd,
  0x65, 0x2f, 0x9c, 0xbe, 0x9e, 0x58, 0x96, 0xbd, 0xfb, 0x3a, 0x82, 0xbc,
  0x54, 0x5e, 0x8a, 0x3d, 0x6a, 0x0e, 0xc4, 0xbc, 0xfd, 0x55, 0x6c, 0xbd,
  0x8e, 0x0a, 0x93, 0x3c, 0xf7, 0x04, 0xb7, 0xbe, 0x33, 0xb8, 0xb9, 0x3d,
  0x62, 0x4e, 0x25, 0xbe, 0xf1, 0xea, 0x2f, 0xbe, 0xbb, 0xae, 0xa3, 0x3c,
  0x57, 0xc1, 0xe1, 0xbd, 0x3e, 0xe9, 0x44, 0xbe, 0x3e, 0x9e, 0x33, 0xbe,
  0x57, 0x6b, 0xd2, 0x3c, 0x85, 0xce, 0x91, 0x3e, 0xdc, 0x82, 0x81, 0x3d,
  0xb6, 0x90, 0xac, 0xbd, 0x7e, 0x8f, 0xc0, 0x3d, 0x91, 0x9f, 0xd1, 0x3d,
  0x73, 0x01, 0xe5, 0xbd, 0xe6, 0x90, 0x6a, 0x3d, 0x79, 0xa7, 0xfc, 0xbe,
  0x8f, 0x6e, 0xb7, 0xbd, 0xf6, 0xb7, 0x76, 0xbc, 0x3f, 0x53, 0x5c, 0xbe,
  0x30, 0xd9, 0xa7, 0xbb, 0xd7, 0x52, 0x4d, 0x3b, 0x7f, 0x0e, 0x00, 0xbe,
  0x9c, 0xe9, 0x8d, 0x3d, 0x6d, 0x4d, 0x8a, 0xbd, 0x12, 0x60, 0x2f, 0xbe,
  0xb3, 0x51, 0xab, 0xbc, 0x97, 0xfc, 0x4d, 0xbe, 0xbb, 0x4f, 0x1c, 0x3d,
  0x60, 0x65, 0xb3, 0xbc, 0xd1, 0xd3, 0xad, 0xbe, 0x54, 0x8a, 0x0a, 0x3e,
  0x4a, 0xac, 0xf2, 0xbe, 0x3e, 0x7e, 0xbf, 0xbc, 0xc2, 0x41, 0x2f, 0x3e,
  0x84, 0xdf, 0x96, 0xbe, 0x3f, 0x47, 0x9c, 0xbd, 0x73, 0x1e, 0x43, 0x3e,
  0x63, 0x37, 0x92, 0xbc, 0x58, 0xaa, 0xfa, 0xbb, 0x66, 0x55, 0x07, 0xbd,
  0x81, 0x06, 0x62, 0xbe, 0x48, 0x99, 0x28, 0xbe, 0x56, 0xed, 0x90, 0x3e,
  0x9d, 0x32, 0x53, 0xbd, 0xcf, 0xea, 0x95, 0xbd, 0xb3, 0x0d, 0x05, 0x3e,
  0x42, 0x06, 0xcf, 0xbc, 0xd5, 0x31, 0xa4, 0xbd, 0x07, 0x56, 0xd6, 0x3e,
  0xcb, 0x62, 0x37, 0xbe, 0x98, 0xfd, 0xae, 0x3a, 0xc9, 0x87, 0xc8, 0xbe,
  0xd9, 0xfb, 0x9c, 0xbd, 0xce, 0xac, 0x66, 0xbd, 0x84, 0x4d, 0x20, 0x3d,
  0x73, 0x53, 0x10, 0xbe, 0xb1, 0xd9, 0x38, 0xbe, 0x6d, 0xa2, 0x99, 0xbd,
  0xc2, 0x58, 0x2e, 0xbe, 0xa3, 0x83, 0x41, 0xbe, 0x55, 0xab, 0x81, 0x3d,
  0xc2, 0x0e, 0x5f, 0x3d, 0xcb, 0xf6, 0x5d, 0xbe, 0xae, 0xf2, 0x98, 0x3d,
  0x09, 0xd4, 0x97, 0x3e, 0x7a, 0xcc, 0x1c, 0xbd, 0x06, 0x4c, 0x2f, 0xbe,
  0x0d, 0x74, 0x11, 0xbd, 0x46, 0x78, 0xec, 0xbd, 0x50, 0x5b, 0x78, 0xbb,
  0xf9, 0x50, 0x01, 0x3e, 0xfa, 0x77, 0x98, 0xbd, 0x67, 0xd9, 0x33, 0xbe,
  0x69, 0x1d, 0x2e, 0x3c, 0xca, 0xf6, 0xc8, 0x3d, 0xbf, 0xb0, 0x81, 0x3d,
  0x7e, 0xb5, 0xf5, 0x3d, 0xdb, 0xbc, 0x0a, 0x3e, 0xf7, 0x24, 0x25, 0xbe,
  0x12, 0xcf, 0x12, 0xbe, 0x07, 0x06, 0x3f, 0xbd, 0x86, 0x01, 0xed, 0x3d,
  0xc1, 0x41, 0xfc, 0x3d, 0x6f, 0x6c, 0x9a, 0xbd, 0x84, 0x20, 0x47, 0xbe,
  0x06, 0x8a, 0xb4, 0xbd, 0x2d, 0xfc, 0x73, 0xbd, 0x6c, 0xdc, 0xe5, 0xbd,
  0xcf, 0xc5, 0xb7, 0x3d, 0x22, 0x97, 0x2d, 0x3e, 0x13, 0xf1, 0x82, 0xbe,
  0xad, 0x0f, 0x9a, 0x3d, 0x1f, 0x69, 0xc8, 0xbd, 0xb2, 0x35, 0x5a, 0x3c,
  0xc3, 0x2e, 0xe7, 0x3d, 0x50, 0x2a, 0x98, 0x3d, 0x99, 0x9d, 0xf4, 0x3d,
  0x53, 0xec, 0x1d, 0x3e, 0xbb, 0xa5, 0x52, 0x3d, 0x93, 0x1a, 0x7d, 0xbe,
  0x80, 0x77, 0x2b, 0xbe, 0x91, 0x75, 0x47, 0xbc, 0x98, 0x01, 0x22, 0xbd,
  0x57, 0xcb, 0xe3, 0x3d, 0x94, 0x4b, 0x1b, 0xbc, 0x16, 0xf4, 0xb1, 0xbc,
  0x19, 0x63, 0x54, 0x3d, 0xe8, 0x21, 0x22, 0x3e, 0xbb, 0xd2, 0xd5, 0x3d,
  0xe0, 0xf6, 0x44, 0x3e, 0x28, 0x8c, 0xe5, 0xbd, 0xeb, 0x96, 0x3d, 0xbd,
  0x46, 0xca, 0xb0, 0x3d, 0xc4, 0x7a, 0x4d, 0xbd, 0x28, 0x50, 0xa0, 0xbd,
  0x06, 0x33, 0x3e, 0x3d, 0x69, 0xdf, 0x87, 0xbe, 0xce, 0x91, 0x93, 0x3c,
  0xe5, 0x99, 0x3c, 0xbe, 0x92, 0xce, 0x81, 0xbe, 0x06, 0x03, 0xe9, 0xbd,
  0x89, 0xb3, 0xa2, 0xbc, 0x2f, 0x03, 0x92, 0xbd, 0x5e, 0x3c, 0xc5, 0xbd,
  0xbc, 0x6e, 0x06, 0x3e, 0x99, 0xf4, 0xe4, 0xbd, 0x3e, 0xb3, 0x30, 0xbe,
  0xbf, 0xd4, 0x0b, 0xbe, 0x2b, 0x2c, 0x87, 0x3d, 0x65, 0xfc, 0x92, 0xbd,
  0x15, 0x9b, 0x08, 0xbe, 0xbc, 0x6d, 0x4d, 0xbe, 0x75, 0x70, 0x0a, 0xbd,
  0xc7, 0x54, 0xda, 0xbc, 0xb6, 0x76, 0xf7, 0xbd, 0x96, 0x74, 0x53, 0x3d,
  0xc2, 0x29, 0x39, 0x3d, 0xf0, 0xfc, 0xd6, 0xbd, 0x48, 0x3f, 0x69, 0x3d,
  0x07, 0x06, 0x19, 0xbd, 0xbf, 0xa9, 0x4f, 0xbe, 0xbd, 0xd7, 0x4b, 0x3e,
  0xba, 0x56, 0x0a, 0x3c, 0x71, 0xbf, 0xde, 0xbd, 0xa7, 0xf4, 0xc6, 0x3d,
  0x66, 0xfd, 0xff, 0xff, 0x10, 0x00, 0x00, 0x00, 0x07, 0x00, 0x00, 0x00,
  0x14, 0x00, 0x00, 0x00, 0x2c, 0x00, 0x00, 0x00, 0x02, 0x00, 0x00, 0x00,
  0x10, 0x00, 0x00, 0x00, 0x70, 0x00, 0x00, 0x00, 0x17, 0x00, 0x00, 0x00,
  0x73, 0x65, 0x71, 0x75, 0x65, 0x6e, 0x74, 0x69, 0x61, 0x6c, 0x2f, 0x64,
  0x65, 0x6e, 0x73, 0x65, 0x2f, 0x4d, 0x61, 0x74, 0x4d, 0x75, 0x6c, 0x00,
  0xd0, 0xfc, 0xff, 0xff, 0xda, 0xfd, 0xff, 0xff, 0x04, 0x00, 0x00, 0x00,
  0x08, 0x00, 0x00, 0x00, 0xff, 0xff, 0xff, 0xff, 0x70, 0x00, 0x00, 0x00,
  0x00, 0x00, 0x0e, 0x00, 0x18, 0x00, 0x08, 0x00, 0x07, 0x00, 0x0c, 0x00,
  0x10, 0x00, 0x14, 0x00, 0x0e, 0x00, 0x00, 0x00, 0x00, 0x00, 0x00, 0x02,
  0x10, 0x00, 0x00, 0x00, 0x06, 0x00, 0x00, 0x00, 0x10, 0x00, 0x00, 0x00,
  0x2c, 0x00, 0x00, 0x00, 0x01, 0x00, 0x00, 0x00, 0x02, 0x00, 0x00, 0x00,
  0x18, 0x00, 0x00, 0x00, 0x73, 0x65, 0x71, 0x75, 0x65, 0x6e, 0x74, 0x69,
  0x61, 0x6c, 0x2f, 0x66, 0x6c, 0x61, 0x74, 0x74, 0x65, 0x6e, 0x2f, 0x43,
  0x6f, 0x6e, 0x73, 0x74, 0x00, 0x00, 0x00, 0x00, 0x38, 0xfd, 0xff, 0xff,
  0x42, 0xfe, 0xff, 0xff, 0x04, 0x00, 0x00, 0x00, 0x0c, 0x00, 0x00, 0x00,
  0x49, 0x23, 0x03, 0x40, 0xcc, 0xaa, 0x9d, 0xbf, 0x15, 0x44, 0x8b, 0xbf,
  0x26, 0xfe, 0xff, 0xff, 0x10, 0x00, 0x00, 0x00, 0x05, 0x00, 0x00, 0x00,
  0x10, 0x00, 0x00, 0x00, 0x44, 0x00, 0x00, 0x00, 0x01, 0x00, 0x00, 0x00,
  0x03, 0x00, 0x00, 0x00, 0x32, 0x00, 0x00, 0x00, 0x73, 0x65, 0x71, 0x75,
  0x65, 0x6e, 0x74, 0x69, 0x61, 0x6c, 0x2f, 0x64, 0x65, 0x6e, 0x73, 0x65,
  0x5f, 0x31, 0x2f, 0x42, 0x69, 0x61, 0x73, 0x41, 0x64, 0x64, 0x2f, 0x52,
  0x65, 0x61, 0x64, 0x56, 0x61, 0x72, 0x69, 0x61, 0x62, 0x6c, 0x65, 0x4f,
  0x70, 0x2f, 0x72, 0x65, 0x73, 0x6f, 0x75, 0x72, 0x63, 0x65, 0x00, 0x00,
  0xa8, 0xfd, 0xff, 0xff, 0xb2, 0xfe, 0xff, 0xff, 0x04, 0x00, 0x00, 0x00,
  0x40, 0x00, 0x00, 0x00, 0xd6, 0x49, 0x96, 0xbe, 0x5d, 0x19, 0x88, 0x3e,
  0x8f, 0xeb, 0x53, 0xbe, 0x8c, 0xb4, 0x49, 0x3f, 0xeb, 0xe7, 0xbb, 0xbd,
  0xc6, 0xce, 0x95, 0xbe, 0x0a, 0xff, 0x17, 0xbf, 0xd7, 0x02, 0x89, 0x3f,
  0xa3, 0x2a, 0xb1, 0x3d, 0xc5, 0xa5, 0x90, 0xbe, 0x09, 0x90, 0xca, 0x3f,
  0x1e, 0x72, 0x66, 0xbe, 0xcb, 0x8a, 0x31, 0xbe, 0xde, 0xe6, 0x91, 0xbf,
  0x77, 0x6f, 0x9f, 0xbf, 0x45, 0x36, 0x82, 0xbe, 0xca, 0xfe, 0xff, 0xff,
  0x10, 0x00, 0x00, 0x00, 0x04, 0x00, 0x00, 0x00, 0x10, 0x00, 0x00, 0x00,
  0x44, 0x00, 0x00, 0x00, 0x01, 0x00, 0x00, 0x00, 0x10, 0x00, 0x00, 0x00,
  0x30, 0x00, 0x00, 0x00, 0x73, 0x65, 0x71, 0x75, 0x65, 0x6e, 0x74, 0x69,
  0x61, 0x6c, 0x2f, 0x64, 0x65, 0x6e, 0x73, 0x65, 0x2f, 0x42, 0x69, 0x61,
  0x73, 0x41, 0x64, 0x64, 0x2f, 0x52, 0x65, 0x61, 0x64, 0x56, 0x61, 0x72,
  0x69, 0x61, 0x62, 0x6c, 0x65, 0x4f, 0x70, 0x2f, 0x72, 0x65, 0x73, 0x6f,
  0x75, 0x72, 0x63, 0x65, 0x00, 0x00, 0x00, 0x00, 0x4c, 0xfe, 0xff, 0xff,
  0x56, 0xff, 0xff, 0xff, 0x04, 0x00, 0x00, 0x00, 0x40, 0x00, 0x00, 0x00,
  0x80, 0x5f, 0xb9, 0xbe, 0x75, 0xbc, 0x26, 0xbf, 0x34, 0x88, 0x02, 0xbf,
  0x6b, 0xfa, 0x13, 0xbf, 0x12, 0x9a, 0x8d, 0xbf, 0x6d, 0x88, 0x20, 0x3d,
  0xcd, 0x28, 0x13, 0xbb, 0x7b, 0x74, 0x5e, 0xbf, 0xb0, 0x66, 0x3d, 0x3f,
  0x01, 0x63, 0x88, 0xbc, 0x35, 0x7e, 0xc4, 0xbd, 0x46, 0xe3, 0x32, 0x3f,
  0xf4, 0xdc, 0xfd, 0x3d, 0xcb, 0x2b, 0x2d, 0xbf, 0x6a, 0x4e, 0x24, 0xbe,
  0x63, 0x26, 0x29, 0xbe, 0x6e, 0xff, 0xff, 0xff, 0x10, 0x00, 0x00, 0x00,
  0x03, 0x00, 0x00, 0x00, 0x10, 0x00, 0x00, 0x00, 0x48, 0x00, 0x00, 0x00,
  0x01, 0x00, 0x00, 0x00, 0x10, 0x00, 0x00, 0x00, 0x33, 0x00, 0x00, 0x00,
  0x73, 0x65, 0x71, 0x75, 0x65, 0x6e, 0x74, 0x69, 0x61, 0x6c, 0x2f, 0x63,
  0x6f, 0x6e, 0x76, 0x32, 0x64, 0x5f, 0x31, 0x2f, 0x42, 0x69, 0x61, 0x73,
  0x41, 0x64, 0x64, 0x2f, 0x52, 0x65, 0x61, 0x64, 0x56, 0x61, 0x72, 0x69,
  0x61, 0x62, 0x6c, 0x65, 0x4f, 0x70, 0x2f, 0x72, 0x65, 0x73, 0x6f, 0x75,
  0x72, 0x63, 0x65, 0x00, 0x04, 0x00, 0x06, 0x00, 0x04, 0x00, 0x00, 0x00,
  0x00, 0x00, 0x06, 0x00, 0x08, 0x00, 0x04, 0x00, 0x06, 0x00, 0x00, 0x00,
  0x04, 0x00, 0x00, 0x00, 0x20, 0x00, 0x00, 0x00, 0x0c, 0x9e, 0x20, 0xbd,
  0xe1, 0x01, 0x25, 0xbf, 0xe0, 0x62, 0x8f, 0xbf, 0x8e, 0x5b, 0x03, 0xc0,
  0xae, 0x89, 0x4d, 0xbe, 0xbf, 0x1f, 0xba, 0xbf, 0xca, 0x91, 0xdc, 0xbf,
  0xc4, 0xb5, 0x51, 0xbf, 0x00, 0x00, 0x0e, 0x00, 0x14, 0x00, 0x04, 0x00,
  0x00, 0x00, 0x08, 0x00, 0x0c, 0x00, 0x10, 0x00, 0x0e, 0x00, 0x00, 0x00,
  0x10, 0x00, 0x00, 0x00, 0x02, 0x00, 0x00, 0x00, 0x10, 0x00, 0x00, 0x00,
  0x44, 0x00, 0x00, 0x00, 0x01, 0x00, 0x00, 0x00, 0x08, 0x00, 0x00, 0x00,
  0x31, 0x00, 0x00, 0x00, 0x73, 0x65, 0x71, 0x75, 0x65, 0x6e, 0x74, 0x69,
  0x61, 0x6c, 0x2f, 0x63, 0x6f, 0x6e, 0x76, 0x32, 0x64, 0x2f, 0x42, 0x69,
  0x61, 0x73, 0x41, 0x64, 0x64, 0x2f, 0x52, 0x65, 0x61, 0x64, 0x56, 0x61,
  0x72, 0x69, 0x61, 0x62, 0x6c, 0x65, 0x4f, 0x70, 0x2f, 0x72, 0x65, 0x73,
  0x6f, 0x75, 0x72, 0x63, 0x65, 0x00, 0x00, 0x00, 0x90, 0xff, 0xff, 0xff,
  0x14, 0x00, 0x18, 0x00, 0x04, 0x00, 0x00, 0x00, 0x08, 0x00, 0x0c, 0x00,
  0x10, 0x00, 0x00, 0x00, 0x00, 0x00, 0x14, 0x00, 0x14, 0x00, 0x00, 0x00,
  0x14, 0x00, 0x00, 0x00, 0x01, 0x00, 0x00, 0x00, 0x20, 0x00, 0x00, 0x00,
  0x44, 0x00, 0x00, 0x00, 0x2c, 0x00, 0x00, 0x00, 0x04, 0x00, 0x00, 0x00,
  0x01, 0x00, 0x00, 0x00, 0x40, 0x00, 0x00, 0x00, 0x03, 0x00, 0x00, 0x00,
  0x01, 0x00, 0x00, 0x00, 0x0c, 0x00, 0x00, 0x00, 0x63, 0x6f, 0x6e, 0x76,
  0x32, 0x64, 0x5f, 0x69, 0x6e, 0x70, 0x75, 0x74, 0x00, 0x00, 0x00, 0x00,
  0x04, 0x00, 0x00, 0x00, 0xff, 0xff, 0xff, 0xff, 0x40, 0x00, 0x00, 0x00,
  0x03, 0x00, 0x00, 0x00, 0x01, 0x00, 0x00, 0x00, 0xfc, 0xff, 0xff, 0xff,
  0x04, 0x00, 0x04, 0x00, 0x04, 0x00, 0x00, 0x00
};

unsigned int model_tflite_len = 13052;// Fill the int in `src/model.cc` here